<pad>	0
<unk>	0
<s>	0
</s>	0
<0x00>	0
<0x01>	0
<0x02>	0
<0x03>	0
<0x04>	0
<0x05>	0
<0x06>	0
<0x07>	0
<0x08>	0
<0x09>	0
<0x0A>	0
<0x0B>	0
<0x0C>	0
<0x0D>	0
<0x0E>	0
<0x0F>	0
<0x10>	0
<0x11>	0
<0x12>	0
<0x13>	0
<0x14>	0
<0x15>	0
<0x16>	0
<0x17>	0
<0x18>	0
<0x19>	0
<0x1A>	0
<0x1B>	0
<0x1C>	0
<0x1D>	0
<0x1E>	0
<0x1F>	0
<0x20>	0
<0x21>	0
<0x22>	0
<0x23>	0
<0x24>	0
<0x25>	0
<0x26>	0
<0x27>	0
<0x28>	0
<0x29>	0
<0x2A>	0
<0x2B>	0
<0x2C>	0
<0x2D>	0
<0x2E>	0
<0x2F>	0
<0x30>	0
<0x31>	0
<0x32>	0
<0x33>	0
<0x34>	0
<0x35>	0
<0x36>	0
<0x37>	0
<0x38>	0
<0x39>	0
<0x3A>	0
<0x3B>	0
<0x3C>	0
<0x3D>	0
<0x3E>	0
<0x3F>	0
<0x40>	0
<0x41>	0
<0x42>	0
<0x43>	0
<0x44>	0
<0x45>	0
<0x46>	0
<0x47>	0
<0x48>	0
<0x49>	0
<0x4A>	0
<0x4B>	0
<0x4C>	0
<0x4D>	0
<0x4E>	0
<0x4F>	0
<0x50>	0
<0x51>	0
<0x52>	0
<0x53>	0
<0x54>	0
<0x55>	0
<0x56>	0
<0x57>	0
<0x58>	0
<0x59>	0
<0x5A>	0
<0x5B>	0
<0x5C>	0
<0x5D>	0
<0x5E>	0
<0x5F>	0
<0x60>	0
<0x61>	0
<0x62>	0
<0x63>	0
<0x64>	0
<0x65>	0
<0x66>	0
<0x67>	0
<0x68>	0
<0x69>	0
<0x6A>	0
<0x6B>	0
<0x6C>	0
<0x6D>	0
<0x6E>	0
<0x6F>	0
<0x70>	0
<0x71>	0
<0x72>	0
<0x73>	0
<0x74>	0
<0x75>	0
<0x76>	0
<0x77>	0
<0x78>	0
<0x79>	0
<0x7A>	0
<0x7B>	0
<0x7C>	0
<0x7D>	0
<0x7E>	0
<0x7F>	0
<0x80>	0
<0x81>	0
<0x82>	0
<0x83>	0
<0x84>	0
<0x85>	0
<0x86>	0
<0x87>	0
<0x88>	0
<0x89>	0
<0x8A>	0
<0x8B>	0
<0x8C>	0
<0x8D>	0
<0x8E>	0
<0x8F>	0
<0x90>	0
<0x91>	0
<0x92>	0
<0x93>	0
<0x94>	0
<0x95>	0
<0x96>	0
<0x97>	0
<0x98>	0
<0x99>	0
<0x9A>	0
<0x9B>	0
<0x9C>	0
<0x9D>	0
<0x9E>	0
<0x9F>	0
<0xA0>	0
<0xA1>	0
<0xA2>	0
<0xA3>	0
<0xA4>	0
<0xA5>	0
<0xA6>	0
<0xA7>	0
<0xA8>	0
<0xA9>	0
<0xAA>	0
<0xAB>	0
<0xAC>	0
<0xAD>	0
<0xAE>	0
<0xAF>	0
<0xB0>	0
<0xB1>	0
<0xB2>	0
<0xB3>	0
<0xB4>	0
<0xB5>	0
<0xB6>	0
<0xB7>	0
<0xB8>	0
<0xB9>	0
<0xBA>	0
<0xBB>	0
<0xBC>	0
<0xBD>	0
<0xBE>	0
<0xBF>	0
<0xC0>	0
<0xC1>	0
<0xC2>	0
<0xC3>	0
<0xC4>	0
<0xC5>	0
<0xC6>	0
<0xC7>	0
<0xC8>	0
<0xC9>	0
<0xCA>	0
<0xCB>	0
<0xCC>	0
<0xCD>	0
<0xCE>	0
<0xCF>	0
<0xD0>	0
<0xD1>	0
<0xD2>	0
<0xD3>	0
<0xD4>	0
<0xD5>	0
<0xD6>	0
<0xD7>	0
<0xD8>	0
<0xD9>	0
<0xDA>	0
<0xDB>	0
<0xDC>	0
<0xDD>	0
<0xDE>	0
<0xDF>	0
<0xE0>	0
<0xE1>	0
<0xE2>	0
<0xE3>	0
<0xE4>	0
<0xE5>	0
<0xE6>	0
<0xE7>	0
<0xE8>	0
<0xE9>	0
<0xEA>	0
<0xEB>	0
<0xEC>	0
<0xED>	0
<0xEE>	0
<0xEF>	0
<0xF0>	0
<0xF1>	0
<0xF2>	0
<0xF3>	0
<0xF4>	0
<0xF5>	0
<0xF6>	0
<0xF7>	0
<0xF8>	0
<0xF9>	0
<0xFA>	0
<0xFB>	0
<0xFC>	0
<0xFD>	0
<0xFE>	0
<0xFF>	0
--	-0
----	-1
▁a	-2
▁t	-3
in	-4
on	-5
he	-6
en	-7
re	-8
ti	-9
or	-10
er	-11
--------	-12
▁the	-13
al	-14
es	-15
ent	-16
▁s	-17
▁o	-18
nd	-19
ed	-20
tion	-21
ic	-22
__	-23
▁of	-24
▁p	-25
is	-26
ar	-27
ro	-28
▁f	-29
▁and	-30
▁c	-31
it	-32
an	-33
ing	-34
ation	-35
le	-36
▁b	-37
▁C	-38
▁re	-39
----------------	-40
ol	-41
▁in	-42
at	-43
▁S	-44
▁m	-45
▁P	-46
ment	-47
▁T	-48
▁A	-49
▁w	-50
tu	-51
▁d	-52
▁to	-53
ad	-54
em	-55
____	-56
dent	-57
ch	-58
st	-59
▁R	-60
ce	-61
▁(	-62
ou	-63
ll	-64
ge	-65
fic	-66
tudent	-67
▁M	-68
om	-69
si	-70
▁for	-71
ac	-72
▁e	-73
ve	-74
ec	-75
▁be	-76
▁pro	-77
ip	-78
ay	-79
id	-80
ul	-81
▁O	-82
se	-83
lo	-84
▁g	-85
am	-86
ith	-87
ter	-88
MC	-89
as	-90
▁D	-91
▁or	-92
pp	-93
il	-94
▁F	-95
▁E	-96
qu	-97
ate	-98
ep	-99
▁with	-100
un	-101
olle	-102
▁ac	-103
ir	-104
▁I	-105
▁student	-106
ust	-107
ers	-108
▁n	-109
all	-110
ON	-111
________	-112
tr	-113
▁by	-114
▁is	-115
ur	-116
▁Re	-117
ollege	-118
TI	-119
▁H	-120
ts	-121
uc	-122
ear	-123
ance	-124
▁are	-125
ub	-126
ty	-127
▁sh	-128
▁th	-129
▁N	-130
im	-131
ffic	-132
for	-133
▁as	-134
res	-135
▁B	-136
▁h	-137
ity	-138
ig	-139
th	-140
her	-141
▁TMC	-142
ain	-143
▁con	-144
▁Offic	-145
ess	-146
ial	-147
TION	-148
our	-149
ted	-150
▁ex	-151
red	-152
▁app	-153
omp	-154
▁on	-155
EC	-156
sion	-157
▁G	-158
▁must	-159
emic	-160
ademic	-161
ee	-162
ly	-163
ver	-164
▁Ac	-165
▁shall	-166
▁en	-167
oc	-168
um	-169
istr	-170
▁Student	-171
ations	-172
ord	-173
▁College	-174
cho	-175
▁an	-176
gr	-177
chool	-178
and	-179
▁L	-180
omm	-181
▁The	-182
▁Tr	-183
ab	-184
▁u	-185
ments	-186
▁l	-187
▁le	-188
▁per	-189
▁Pro	-190
▁Office	-191
ual	-192
emb	-193
▁all	-194
age	-195
oun	-196
vi	-197
▁at	-198
qui	-199
ary	-200
▁students	-201
erv	-202
form	-203
od	-204
ting	-205
acul	-206
▁rec	-207
aculty	-208
ow	-209
ated	-210
roll	-211
el	-212
tive	-213
ECTION	-214
▁offic	-215
rom	-216
tions	-217
iz	-218
duc	-219
ies	-220
ot	-221
SECTION	-222
lic	-223
gram	-224
ff	-225
val	-226
ard	-227
▁sub	-228
us	-229
▁Pre	-230
St	-231
rad	-232
▁wh	-233
Step	-234
▁y	-235
▁from	-236
ib	-237
ud	-238
unic	-239
▁Res	-240
ties	-241
▁No	-242
▁comp	-243
low	-244
dm	-245
per	-246
TMC	-247
▁de	-248
ut	-249
ten	-250
▁|	-251
ses	-252
▁In	-253
ees	-254
ords	-255
▁Man	-256
vis	-257
idad	-258
▁may	-259
inidad	-260
▁appro	-261
▁school	-262
anc	-263
EN	-264
erti	-265
▁academic	-266
▁dis	-267
ans	-268
art	-269
tic	-270
ember	-271
sear	-272
ission	-273
▁resear	-274
ave	-275
ipal	-276
sident	-277
AL	-278
▁He	-279
unicipal	-280
▁requi	-281
▁res	-282
uation	-283
cess	-284
ES	-285
IC	-286
ri	-287
pec	-288
ollow	-289
▁enroll	-290
▁research	-291
por	-292
ervic	-293
jec	-294
plo	-295
▁program	-296
ew	-297
air	-298
▁follow	-299
________________	-300
its	-301
ploy	-302
▁grad	-303
ag	-304
ug	-305
▁year	-306
und	-307
HE	-308
coun	-309
▁President	-310
hip	-311
earch	-312
ved	-313
os	-314
su	-315
vid	-316
ence	-317
inistr	-318
pon	-319
te	-320
▁who	-321
IN	-322
ther	-323
ertific	-324
▁tr	-325
gistr	-326
▁Research	-327
▁Trinidad	-328
ail	-329
end	-330
titu	-331
ational	-332
dministr	-333
ND	-334
epart	-335
ester	-336
▁r	-337
emester	-338
▁records	-339
if	-340
ors	-341
▁pre	-342
op	-343
▁v	-344
lec	-345
stitu	-346
▁not	-347
erson	-348
▁faculty	-349
epartment	-350
ertificate	-351
ork	-352
▁st	-353
▁V	-354
ENT	-355
ays	-356
ill	-357
▁Head	-358
▁Municipal	-359
ign	-360
mit	-361
ocu	-362
able	-363
ical	-364
▁Academic	-365
The	-366
▁em	-367
▁fin	-368
▁that	-369
OL	-370
▁he	-371
▁other	-372
tain	-373
▁semester	-374
▁following	-375
▁work	-376
ass	-377
▁su	-378
the	-379
▁Comm	-380
▁their	-381
▁im	-382
▁Manual	-383
ars	-384
▁AND	-385
est	-386
ipl	-387
tor	-388
▁ad	-389
▁cl	-390
▁any	-391
▁Certificate	-392
ach	-393
ves	-394
▁Bo	-395
over	-396
og	-397
ore	-398
fter	-399
▁provid	-400
▁Comp	-401
gistrar	-402
ast	-403
enti	-404
ination	-405
▁form	-406
▁employ	-407
▁W	-408
sis	-409
▁un	-410
▁within	-411
ER	-412
▁U	-413
ant	-414
sid	-415
IS	-416
fer	-417
lop	-418
rements	-419
AN	-420
ugh	-421
ding	-422
▁Con	-423
velop	-424
vised	-425
airs	-426
overn	-427
▁repor	-428
▁comm	-429
▁servic	-430
AD	-431
et	-432
chol	-433
▁Nov	-434
▁November	-435
▁Students	-436
ure	-437
olic	-438
▁man	-439
ition	-440
▁person	-441
▁official	-442
XX	-443
ion	-444
ous	-445
ree	-446
▁PH	-447
▁cour	-448
▁institu	-449
OR	-450
enc	-451
▁days	-452
ffairs	-453
▁Registrar	-454
AR	-455
cr	-456
Page	-457
educ	-458
ized	-459
▁subjec	-460
counting	-461
▁Revised	-462
▁enrollment	-463
amp	-464
ort	-465
ally	-466
nder	-467
rough	-468
ak	-469
gul	-470
igh	-471
uth	-472
▁eval	-473
LE	-474
li	-475
ive	-476
▁pl	-477
ates	-478
ative	-479
▁acti	-480
agement	-481
ocuments	-482
cl	-483
view	-484
▁PHP	-485
ublic	-486
resent	-487
▁after	-488
▁Faculty	-489
tern	-490
▁pay	-491
ampus	-492
cholars	-493
velopment	-494
HED	-495
▁par	-496
ATION	-497
ancial	-498
vities	-499
▁Administr	-500
▁educ	-501
pa	-502
uthor	-503
▁applic	-504
ducation	-505
▁Affairs	-506
formation	-507
ang	-508
rit	-509
▁OF	-510
▁J	-511
iod	-512
yst	-513
▁Ex	-514
ache	-515
embers	-516
▁School	-517
▁through	-518
▁institution	-519
▁po	-520
▁Sec	-521
▁rece	-522
ential	-523
▁programs	-524
▁Education	-525
▁Department	-526
▁activities	-527
ci	-528
▁En	-529
ener	-530
udge	-531
▁out	-532
ities	-533
ystem	-534
▁under	-535
▁submit	-536
aw	-537
ld	-538
ond	-539
▁ch	-540
▁lo	-541
MENT	-542
▁one	-543
up	-544
lor	-545
sib	-546
▁ca	-547
▁fee	-548
▁approved	-549
ok	-550
overnment	-551
▁Accounting	-552
pro	-553
str	-554
ited	-555
ility	-556
udget	-557
▁required	-558
GE	-559
UN	-560
ose	-561
tud	-562
tur	-563
urr	-564
oord	-565
▁CHED	-566
▁exam	-567
▁allow	-568
▁conduc	-569
OP	-570
ipt	-571
uid	-572
uring	-573
ession	-574
▁leave	-575
▁k	-576
gan	-577
▁trans	-578
fession	-579
▁members	-580
ID	-581
ex	-582
ash	-583
ice	-584
ven	-585
▁ob	-586
ator	-587
fore	-588
▁cop	-589
▁will	-590
eneral	-591
▁office	-592
ue	-593
hed	-594
ine	-595
out	-596
pos	-597
▁May	-598
▁polic	-599
▁author	-600
.)	-601
SA	-602
ss	-603
▁Te	-604
▁All	-605
▁his	-606
▁least	-607
achelor	-608
ST	-609
▁–	-610
lis	-611
▁sa	-612
cipl	-613
▁requ	-614
▁period	-615
▁education	-616
IT	-617
ame	-618
ibr	-619
now	-620
▁Ph	-621
▁qu	-622
ific	-623
asses	-624
aining	-625
▁campus	-626
▁proper	-627
▁process	-628
▁working	-629
cholarship	-630
ef	-631
▁des	-632
▁development	-633
eek	-634
clud	-635
icul	-636
▁Per	-637
▁Rec	-638
▁sec	-639
▁subject	-640
ph	-641
wo	-642
mis	-643
ood	-644
▁PR	-645
▁we	-646
ants	-647
▁bo	-648
▁te	-649
olog	-650
▁off	-651
ating	-652
▁issu	-653
oordin	-654
▁years	-655
aintain	-656
▁during	-657
▁classes	-658
fessional	-659
▁evaluation	-660
to	-661
ata	-662
rim	-663
ceed	-664
inal	-665
irst	-666
side	-667
▁mee	-668
▁mon	-669
▁tim	-670
gular	-671
ision	-672
▁have	-673
ibrary	-674
College	-675
urricul	-676
ied	-677
rec	-678
ganiz	-679
▁Grad	-680
▁Trans	-681
▁before	-682
formance	-683
▁financial	-684
▁requirements	-685
▁De	-686
OLLE	-687
ased	-688
fund	-689
ning	-690
▁Dis	-691
ership	-692
▁Board	-693
▁services	-694
IP	-695
▁Ch	-696
▁Em	-697
▁TR	-698
tudy	-699
▁Sub	-700
struc	-701
mission	-702
▁documents	-703
UR	-704
edi	-705
ise	-706
▁ab	-707
ines	-708
vail	-709
▁pur	-710
sible	-711
▁posi	-712
OLLEGE	-713
▁Servic	-714
▁includ	-715
▁college	-716
of	-717
tin	-718
▁IN	-719
ched	-720
ould	-721
ppro	-722
▁upon	-723
ternal	-724
▁Requi	-725
▁COLLEGE	-726
▁management	-727
▁information	-728
ED	-729
▁Ar	-730
▁Le	-731
▁gr	-732
▁pr	-733
ards	-734
▁For	-735
▁non	-736
posal	-737
unity	-738
liance	-739
▁comple	-740
▁courses	-741
▁enrolled	-742
▁graduation	-743
hol	-744
led	-745
sed	-746
tee	-747
umb	-748
IDAD	-749
ilip	-750
▁Pay	-751
▁acc	-752
ology	-753
INIDAD	-754
edical	-755
▁public	-756
urriculum	-757
▁administr	-758
UD	-759
me	-760
act	-761
ake	-762
ple	-763
ult	-764
ages	-765
ounc	-766
pect	-767
▁Sci	-768
▁ass	-769
inary	-770
▁elec	-771
▁only	-772
▁qual	-773
aching	-774
tudents	-775
▁respon	-776
dmission	-777
▁National	-778
▁provided	-779
RA	-780
SG	-781
fe	-782
▁Q	-783
___	-784
der	-785
erm	-786
pen	-787
ull	-788
unc	-789
▁An	-790
▁ma	-791
oral	-792
▁PRO	-793
▁dec	-794
▁rel	-795
ittee	-796
▁Cash	-797
▁cons	-798
▁Mayor	-799
▁dated	-800
▁Program	-801
▁Administration	-802
ys	-803
chn	-804
ned	-805
▁PM	-806
▁law	-807
count	-808
iplom	-809
ollec	-810
▁cred	-811
▁fees	-812
_______	-813
▁Process	-814
ciplinary	-815
▁TRINIDAD	-816
▁approval	-817
▁examination	-818
▁professional	-819
GU	-820
ING	-821
aff	-822
ich	-823
vol	-824
▁Un	-825
lish	-826
ences	-827
▁copy	-828
▁pres	-829
▁term	-830
▁this	-831
▁writ	-832
ization	-833
▁organiz	-834
▁submitted	-835
EL	-836
▁-	-837
▁j	-838
ION	-839
edu	-840
inc	-841
man	-842
ogn	-843
tis	-844
uil	-845
vel	-846
▁se	-847
ours	-848
ving	-849
▁Act	-850
▁rep	-851
▁was	-852
other	-853
▁supp	-854
▁week	-855
ustees	-856
ability	-857
▁Coordin	-858
▁policies	-859
▁employees	-860
AC	-861
Tr	-862
one	-863
ong	-864
▁ST	-865
enef	-866
▁Rep	-867
▁two	-868
pares	-869
▁Must	-870
▁five	-871
▁know	-872
pproved	-873
▁budget	-874
adership	-875
▁Records	-876
▁receipt	-877
▁service	-878
OPC	-879
his	-880
ian	-881
iti	-882
▁RE	-883
Date	-884
▁pri	-885
▁guid	-886
▁over	-887
▁rele	-888
ommend	-889
▁avail	-890
▁contr	-891
▁Medical	-892
▁________	-893
▁curriculum	-894
hen	-895
nel	-896
oli	-897
row	-898
▁On	-899
▁ph	-900
ffec	-901
gree	-902
sist	-903
uate	-904
▁fac	-905
UDENT	-906
andid	-907
tical	-908
ticip	-909
uition	-910
enefits	-911
▁general	-912
▁maintain	-913
▁_______________	-914
CH	-915
RE	-916
ap	-917
▁Y	-918
FIC	-919
ack	-920
are	-921
con	-922
oci	-923
▁al	-924
▁me	-925
aged	-926
ater	-927
itor	-928
▁Fin	-929
▁REC	-930
umber	-931
ouncil	-932
▁which	-933
ilities	-934
▁System	-935
▁design	-936
▁Science	-937
▁without	-938
LO	-939
SO	-940
go	-941
int	-942
ism	-943
jor	-944
▁AM	-945
▁HR	-946
▁ID	-947
▁St	-948
▁fi	-949
▁no	-950
UNIC	-951
very	-952
vinc	-953
▁App	-954
▁Loc	-955
▁vac	-956
▁grade	-957
▁units	-958
▁Comple	-959
▁course	-960
▁refund	-961
▁Trustees	-962
▁training	-963
OT	-964
Re	-965
▁/	-966
eed	-967
hib	-968
ome	-969
sel	-970
▁up	-971
alth	-972
cour	-973
tend	-974
tisf	-975
urse	-976
▁add	-977
▁has	-978
▁its	-979
▁min	-980
igher	-981
urity	-982
▁thir	-983
iploma	-984
▁final	-985
vincial	-986
▁review	-987
▁system	-988
▁conducted	-989
▁Commission	-990
CE	-991
MO	-992
eld	-993
lig	-994
she	-995
tal	-996
▁am	-997
IPAL	-998
crib	-999
duct	-1000
term	-1001
▁ann	-1002
burse	-1003
prove	-1004
▁Vice	-1005
▁func	-1006
▁spec	-1007
▁such	-1008
▁than	-1009
▁month	-1010
hibited	-1011
ocument	-1012
Trinidad	-1013
UNICIPAL	-1014
▁Committee	-1015
▁allowance	-1016
▁positions	-1017
▁Scholarship	-1018
▁Requirements	-1019
).	-1020
UL	-1021
acy	-1022
ist	-1023
leg	-1024
▁it	-1025
ense	-1026
genc	-1027
room	-1028
tire	-1029
ules	-1030
▁can	-1031
▁due	-1032
▁ser	-1033
ilipp	-1034
▁sign	-1035
cribed	-1036
▁class	-1037
▁sched	-1038
▁should	-1039
Bachelor	-1040
▁Council	-1041
▁payment	-1042
▁present	-1043
▁MUNICIPAL	-1044
▁community	-1045
▁recommend	-1046
▁prescribed	-1047
▁application	-1048
SGD	-1049
ces	-1050
elf	-1051
arac	-1052
imum	-1053
irec	-1054
lear	-1055
peri	-1056
uter	-1057
▁Ass	-1058
▁imm	-1059
mises	-1060
vance	-1061
▁Elec	-1062
▁Rece	-1063
▁fund	-1064
▁meet	-1065
▁prob	-1066
▁same	-1067
arning	-1068
tisfac	-1069
▁major	-1070
aracter	-1071
essment	-1072
plement	-1073
uilding	-1074
▁Employ	-1075
▁action	-1076
▁collec	-1077
▁degree	-1078
▁issued	-1079
▁member	-1080
Approved	-1081
▁instruc	-1082
▁reports	-1083
▁tuition	-1084
po	-1085
EAR	-1086
ace	-1087
ank	-1088
pri	-1089
rol	-1090
▁Im	-1091
▁Or	-1092
With	-1093
ress	-1094
tory	-1095
▁LGU	-1096
▁new	-1097
▁str	-1098
▁val	-1099
alary	-1100
vious	-1101
▁Data	-1102
▁Form	-1103
▁each	-1104
▁first	-1105
▁invol	-1106
▁total	-1107
rollment	-1108
students	-1109
▁Officer	-1110
▁Philipp	-1111
▁library	-1112
▁regular	-1113
▁request	-1114
▁Bachelor	-1115
▁teaching	-1116
▁personnel	-1117
▁Government	-1118
▁government	-1119
▁organizations	-1120
cer	-1121
ibu	-1122
ite	-1123
abor	-1124
cell	-1125
pose	-1126
tinu	-1127
▁Sup	-1128
▁reg	-1129
▁use	-1130
▁Qual	-1131
▁said	-1132
▁time	-1133
ources	-1134
▁Bohol	-1135
▁stand	-1136
aration	-1137
▁Budget	-1138
▁candid	-1139
▁STUDENT	-1140
▁particip	-1141
▁proposal	-1142
▁Documents	-1143
▁performance	-1144
▁responsible	-1145
old	-1146
umm	-1147
▁As	-1148
ight	-1149
oint	-1150
tter	-1151
udit	-1152
vers	-1153
▁MAN	-1154
tives	-1155
▁Arts	-1156
▁Good	-1157
▁book	-1158
▁case	-1159
▁inte	-1160
▁OFFIC	-1161
▁hours	-1162
▁rules	-1163
itation	-1164
pective	-1165
tension	-1166
▁report	-1167
▁written	-1168
▁Compliance	-1169
av	-1170
lp	-1171
mo	-1172
▁“	-1173
ase	-1174
cep	-1175
fid	-1176
ics	-1177
ier	-1178
ule	-1179
uly	-1180
▁It	-1181
▁gi	-1182
SION	-1183
ered	-1184
perv	-1185
with	-1186
▁Eth	-1187
▁but	-1188
ately	-1189
ledge	-1190
toral	-1191
vision	-1192
▁Local	-1193
▁Techn	-1194
▁every	-1195
▁study	-1196
tention	-1197
▁number	-1198
▁projec	-1199
▁recogn	-1200
▁Transcr	-1201
▁offices	-1202
▁appropri	-1203
▁benefits	-1204
▁decision	-1205
▁subjects	-1206
▁department	-1207
▁leadership	-1208
▁prohibited	-1209
No	-1210
ck	-1211
mc	-1212
ry	-1213
ERV	-1214
ale	-1215
rug	-1216
tmc	-1217
▁CO	-1218
cedu	-1219
ever	-1220
line	-1221
teen	-1222
▁OSA	-1223
▁pos	-1224
angay	-1225
ecess	-1226
estab	-1227
iness	-1228
itted	-1229
ocial	-1230
round	-1231
▁Crim	-1232
▁Year	-1233
▁fail	-1234
▁port	-1235
▁well	-1236
▁staff	-1237
arangay	-1238
cedures	-1239
▁Applic	-1240
learance	-1241
▁allowed	-1242
▁Official	-1243
▁previous	-1244
▁authority	-1245
▁Management	-1246
▁authorized	-1247
),	-1248
EM	-1249
be	-1250
ia	-1251
wn	-1252
tig	-1253
▁Co	-1254
ross	-1255
▁Jun	-1256
▁mar	-1257
EARCH	-1258
ances	-1259
arass	-1260
atory	-1261
iform	-1262
onors	-1263
ports	-1264
tural	-1265
▁Eval	-1266
▁prac	-1267
owever	-1268
tained	-1269
verage	-1270
▁based	-1271
▁compe	-1272
▁level	-1273
▁order	-1274
▁three	-1275
ESEARCH	-1276
▁Submit	-1277
▁grades	-1278
▁vacanc	-1279
▁General	-1280
▁Manages	-1281
▁conduct	-1282
arassment	-1283
▁Prepares	-1284
▁Services	-1285
▁learning	-1286
▁premises	-1287
gistration	-1288
ifications	-1289
tisfactory	-1290
▁Financial	-1291
▁functions	-1292
▁standards	-1293
▁credential	-1294
▁facilities	-1295
▁Philippines	-1296
▁scholarship	-1297
BS	-1298
TY	-1299
UC	-1300
pl	-1301
pr	-1302
ily	-1303
raw	-1304
ues	-1305
▁If	-1306
▁La	-1307
▁NC	-1308
▁Pl	-1309
COPC	-1310
kill	-1311
ring	-1312
tice	-1313
time	-1314
uman	-1315
year	-1316
▁Par	-1317
▁ent	-1318
ourse	-1319
viser	-1320
▁Guid	-1321
▁help	-1322
▁pass	-1323
▁phys	-1324
▁plan	-1325
▁your	-1326
person	-1327
▁Leave	-1328
▁estab	-1329
▁given	-1330
▁times	-1331
▁concer	-1332
▁exceed	-1333
▁reques	-1334
▁superv	-1335
▁Conduct	-1336
▁Regular	-1337
▁another	-1338
▁appoint	-1339
▁improve	-1340
▁transac	-1341
gulations	-1342
▁employee	-1343
▁admission	-1344
atisfactory	-1345
▁Provincial	-1346
▁assessment	-1347
▁Information	-1348
▁Performance	-1349
▁disciplinary	-1350
▁administrative	-1351
DA	-1352
TR	-1353
UNI	-1354
ior	-1355
▁CA	-1356
▁RA	-1357
▁if	-1358
ange	-1359
ipts	-1360
vity	-1361
▁Eng	-1362
▁inf	-1363
ators	-1364
exual	-1365
ified	-1366
stand	-1367
▁Cont	-1368
▁Four	-1369
▁data	-1370
▁duly	-1371
▁good	-1372
▁into	-1373
▁plac	-1374
▁them	-1375
▁they	-1376
elding	-1377
vestig	-1378
itional	-1379
▁Course	-1380
▁Higher	-1381
▁copies	-1382
▁expect	-1383
▁inside	-1384
▁intern	-1385
ffective	-1386
inations	-1387
olitical	-1388
tirement	-1389
▁Receive	-1390
▁Section	-1391
▁consent	-1392
▁support	-1393
fidential	-1394
▁RESEARCH	-1395
▁disburse	-1396
▁provides	-1397
▁Character	-1398
▁committed	-1399
▁knowledge	-1400
▁Enrollment	-1401
▁Evaluation	-1402
▁Transcript	-1403
▁Application	-1404
▁Coordinates	-1405
▁expectations	-1406
hi	-1407
ob	-1408
so	-1409
tw	-1410
HEI	-1411
TIN	-1412
UAL	-1413
ons	-1414
rie	-1415
tly	-1416
▁Fi	-1417
ANCE	-1418
ESDA	-1419
This	-1420
cher	-1421
cred	-1422
edia	-1423
ound	-1424
sure	-1425
ture	-1426
uled	-1427
viol	-1428
▁CON	-1429
▁Inc	-1430
▁Pri	-1431
▁end	-1432
▁inc	-1433
acher	-1434
▁need	-1435
▁oper	-1436
▁safe	-1437
urance	-1438
▁below	-1439
▁third	-1440
▁OFFICE	-1441
▁immedi	-1442
▁letter	-1443
ferences	-1444
fication	-1445
standing	-1446
▁Institu	-1447
▁average	-1448
amination	-1449
▁Training	-1450
▁transfer	-1451
▁available	-1452
▁Completion	-1453
▁Technology	-1454
▁employment	-1455
▁respective	-1456
▁administration	-1457
AW	-1458
FA	-1459
IE	-1460
MP	-1461
MS	-1462
WA	-1463
co	-1464
ged	-1465
ges	-1466
ife	-1467
ory	-1468
rid	-1469
vir	-1470
▁do	-1471
▁ev	-1472
▁so	-1473
emor	-1474
here	-1475
nual	-1476
ourn	-1477
quip	-1478
reas	-1479
sive	-1480
turn	-1481
ults	-1482
▁Any	-1483
▁BOT	-1484
▁cor	-1485
▁ind	-1486
▁loc	-1487
▁mod	-1488
▁obs	-1489
olicy	-1490
tures	-1491
▁Priv	-1492
▁orig	-1493
▁post	-1494
onment	-1495
viewed	-1496
▁Heads	-1497
▁Moral	-1498
▁gradu	-1499
▁selec	-1500
▁those	-1501
emorand	-1502
ultural	-1503
▁Salary	-1504
▁integr	-1505
▁record	-1506
▁Cashier	-1507
▁Present	-1508
▁Service	-1509
▁account	-1510
▁Computer	-1511
▁Document	-1512
▁communic	-1513
▁national	-1514
▁retained	-1515
▁Admission	-1516
▁relations	-1517
▁compliance	-1518
▁designated	-1519
▁appropriate	-1520
bo	-1521
ix	-1522
pe	-1523
GRA	-1524
ORM	-1525
Pro	-1526
ade	-1527
eep	-1528
ens	-1529
erc	-1530
mon	-1531
ost	-1532
sal	-1533
▁Th	-1534
▁ar	-1535
▁us	-1536
atur	-1537
fied	-1538
heck	-1539
ings	-1540
onor	-1541
utom	-1542
▁Mon	-1543
▁abs	-1544
▁beh	-1545
ently	-1546
etent	-1547
▁Book	-1548
▁drug	-1549
▁gran	-1550
▁more	-1551
▁viol	-1552
elines	-1553
enroll	-1554
missal	-1555
motion	-1556
▁Study	-1557
▁envir	-1558
▁evalu	-1559
▁initi	-1560
▁labor	-1561
▁moral	-1562
▁there	-1563
rolment	-1564
▁PROGRA	-1565
▁comply	-1566
▁encour	-1567
▁result	-1568
▁signed	-1569
▁thesis	-1570
ibutions	-1571
quipment	-1572
▁Diploma	-1573
▁quality	-1574
admission	-1575
ocational	-1576
▁STUDENTS	-1577
▁external	-1578
▁reported	-1579
▁competent	-1580
▁municipal	-1581
▁represent	-1582
▁scheduled	-1583
▁semesters	-1584
▁collection	-1585
▁environment	-1586
▁regulations	-1587
▁Administrative	-1588
TE	-1589
ms	-1590
sh	-1591
XXX	-1592
day	-1593
los	-1594
ode	-1595
sig	-1596
tec	-1597
ude	-1598
▁DE	-1599
▁ag	-1600
▁id	-1601
▁li	-1602
ADEM	-1603
FAST	-1604
TING	-1605
XXXX	-1606
ffor	-1607
ious	-1608
lain	-1609
reme	-1610
thod	-1611
ward	-1612
▁Dec	-1613
▁GWA	-1614
▁XXX	-1615
▁dem	-1616
▁dep	-1617
▁eth	-1618
▁mis	-1619
itors	-1620
perty	-1621
poses	-1622
▁Full	-1623
▁exis	-1624
▁summ	-1625
ADEMIC	-1626
ISSION	-1627
ighted	-1628
school	-1629
▁apply	-1630
▁areas	-1631
▁known	-1632
▁oblig	-1633
▁pursu	-1634
▁skill	-1635
ference	-1636
gencies	-1637
usiness	-1638
▁Annual	-1639
▁Covers	-1640
▁Crimin	-1641
▁Ethics	-1642
▁access	-1643
▁grants	-1644
▁policy	-1645
▁second	-1646
Reviewed	-1647
perience	-1648
rievance	-1649
▁Library	-1650
▁Quality	-1651
▁adviser	-1652
▁require	-1653
▁Guidance	-1654
▁Internal	-1655
▁Maintain	-1656
▁security	-1657
Department	-1658
▁completed	-1659
▁providing	-1660
▁completion	-1661
▁certificate	-1662
▁credentials	-1663
▁contributions	-1664
AS	-1665
Ac	-1666
Ed	-1667
In	-1668
US	-1669
Un	-1670
lu	-1671
ITY	-1672
ane	-1673
ino	-1674
les	-1675
olu	-1676
ove	-1677
rel	-1678
sec	-1679
use	-1680
▁AC	-1681
▁sy	-1682
OLIC	-1683
anel	-1684
cept	-1685
cure	-1686
ents	-1687
ient	-1688
ined	-1689
irth	-1690
ital	-1691
ppor	-1692
used	-1693
vant	-1694
▁God	-1695
▁cre	-1696
▁fif	-1697
▁tak	-1698
▁top	-1699
▁you	-1700
ainst	-1701
enses	-1702
ource	-1703
tered	-1704
▁Fail	-1705
▁High	-1706
▁June	-1707
▁also	-1708
▁care	-1709
▁grow	-1710
▁life	-1711
▁take	-1712
▁used	-1713
▁when	-1714
aneous	-1715
elfare	-1716
tudies	-1717
▁Birth	-1718
▁Laude	-1719
▁recei	-1720
ertiary	-1721
ictures	-1722
▁accred	-1723
▁identi	-1724
▁necess	-1725
▁regard	-1726
▁subsid	-1727
curement	-1728
paration	-1729
▁Perform	-1730
▁fifteen	-1731
▁project	-1732
▁provide	-1733
Municipal	-1734
▁PROGRAMS	-1735
▁Property	-1736
▁building	-1737
▁includes	-1738
▁investig	-1739
▁officers	-1740
▁personal	-1741
▁classroom	-1742
▁establish	-1743
▁extension	-1744
▁including	-1745
▁involving	-1746
▁officials	-1747
▁probation	-1748
▁Graduation	-1749
▁applicable	-1750
▁experience	-1751
▁operations	-1752
▁Development	-1753
▁appointment	-1754
▁immediately	-1755
▁Disciplinary	-1756
▁registration	-1757
▁Administrator	-1758
AT	-1759
CO	-1760
TH	-1761
no	-1762
AGE	-1763
DUC	-1764
For	-1765
OLL	-1766
STP	-1767
She	-1768
ads	-1769
clu	-1770
dis	-1771
een	-1772
ful	-1773
lip	-1774
men	-1775
ret	-1776
ute	-1777
▁Cl	-1778
FORM	-1779
eria	-1780
etal	-1781
ials	-1782
icen	-1783
know	-1784
ower	-1785
pare	-1786
reat	-1787
rees	-1788
ters	-1789
▁Arc	-1790
▁HON	-1791
▁Pur	-1792
▁THE	-1793
▁six	-1794
▁ten	-1795
ading	-1796
ained	-1797
elded	-1798
remon	-1799
▁COPC	-1800
▁Date	-1801
▁Fire	-1802
▁HRMO	-1803
▁Hand	-1804
▁Over	-1805
▁This	-1806
▁back	-1807
▁full	-1808
▁held	-1809
▁laws	-1810
▁main	-1811
▁play	-1812
▁wear	-1813
cement	-1814
formed	-1815
ournal	-1816
pected	-1817
▁Chair	-1818
▁Final	-1819
▁Metal	-1820
▁POLIC	-1821
▁TESDA	-1822
▁audit	-1823
▁funds	-1824
▁mater	-1825
▁media	-1826
Faculty	-1827
hielded	-1828
related	-1829
tenance	-1830
terview	-1831
▁Assist	-1832
▁Vision	-1833
▁manual	-1834
▁series	-1835
▁sports	-1836
Students	-1837
jectives	-1838
sibility	-1839
▁Privacy	-1840
▁Welding	-1841
▁outside	-1842
Effective	-1843
emorandum	-1844
▁Employee	-1845
▁Officers	-1846
▁Required	-1847
▁business	-1848
▁physical	-1849
▁prepares	-1850
▁property	-1851
▁purposes	-1852
▁requires	-1853
▁weighted	-1854
▁Clearance	-1855
▁concerned	-1856
▁reporting	-1857
▁additional	-1858
▁harassment	-1859
▁procedures	-1860
▁processing	-1861
▁examinations	-1862
eb	-1863
All	-1864
GIS	-1865
iol	-1866
mot	-1867
rac	-1868
til	-1869
tun	-1870
▁GR	-1871
▁Su	-1872
▁du	-1873
▁pa	-1874
Vice	-1875
arge	-1876
atic	-1877
foli	-1878
ires	-1879
ises	-1880
ivid	-1881
ling	-1882
ness	-1883
olid	-1884
ropp	-1885
tual	-1886
ures	-1887
▁Aug	-1888
▁INC	-1889
▁Sen	-1890
▁Two	-1891
▁bas	-1892
▁col	-1893
▁sim	-1894
ISION	-1895
aries	-1896
folio	-1897
gency	-1898
ictly	-1899
inars	-1900
iring	-1901
ually	-1902
▁Dean	-1903
▁Frid	-1904
▁Mond	-1905
▁Spec	-1906
▁With	-1907
▁does	-1908
▁file	-1909
▁fill	-1910
▁made	-1911
▁soci	-1912
ATIONS	-1913
eremon	-1914
luence	-1915
▁Filip	-1916
▁Stand	-1917
▁local	-1918
Student	-1919
duction	-1920
istered	-1921
ividual	-1922
pportun	-1923
riteria	-1924
tinuing	-1925
▁Associ	-1926
▁August	-1927
▁Campus	-1928
▁Health	-1929
▁Honors	-1930
▁Policy	-1931
▁Public	-1932
▁Second	-1933
▁Superv	-1934
▁observ	-1935
▁proble	-1936
▁secure	-1937
▁social	-1938
▁Prepare	-1939
▁Special	-1940
▁Supreme	-1941
▁diploma	-1942
▁follows	-1943
▁granted	-1944
▁offense	-1945
▁purpose	-1946
▁related	-1947
▁respect	-1948
▁special	-1949
▁uniform	-1950
▁Barangay	-1951
▁Security	-1952
▁complain	-1953
▁original	-1954
▁properly	-1955
▁relevant	-1956
▁specific	-1957
▁Dismissal	-1958
▁enrolment	-1959
▁implement	-1960
▁necessary	-1961
▁resources	-1962
▁Memorandum	-1963
▁Processing	-1964
▁Submission	-1965
▁candidates	-1966
▁guidelines	-1967
▁Examination	-1968
▁educational	-1969
▁instruction	-1970
▁Municipality	-1971
▁Satisfactory	-1972
▁availability	-1973
▁disbursements	-1974
▁qualifications	-1975
):	-1976
BI	-1977
He	-1978
IR	-1979
by	-1980
na	-1981
tc	-1982
IEW	-1983
MAW	-1984
PSA	-1985
SIS	-1986
TIC	-1987
VEL	-1988
aph	-1989
avi	-1990
ecu	-1991
iar	-1992
ish	-1993
own	-1994
urn	-1995
▁At	-1996
▁DO	-1997
▁EN	-1998
▁Me	-1999
▁OV	-2000
▁Se	-2001
▁ne	-2002
ROLL	-2003
aily	-2004
cent	-2005
comp	-2006
ffer	-2007
from	-2008
itiz	-2009
less	-2010
ones	-2011
ount	-2012
pril	-2013
roup	-2014
tenc	-2015
tics	-2016
▁Cum	-2017
▁New	-2018
▁Pet	-2019
▁cer	-2020
▁def	-2021
▁etc	-2022
▁fil	-2023
▁him	-2024
▁max	-2025
▁nom	-2026
▁own	-2027
▁pap	-2028
▁vis	-2029
UNIOR	-2030
alend	-2031
atern	-2032
ature	-2033
based	-2034
orpor	-2035
tween	-2036
▁Coun	-2037
▁Fund	-2038
▁NSTP	-2039
▁bank	-2040
▁been	-2041
▁cash	-2042
▁date	-2043
▁load	-2044
▁long	-2045
▁name	-2046
▁once	-2047
▁part	-2048
▁priv	-2049
▁reas	-2050
▁rend	-2051
ERVIEW	-2052
igital	-2053
ignity	-2054
itions	-2055
mental	-2056
respon	-2057
sition	-2058
uccess	-2059
ustice	-2060
▁April	-2061
▁Deans	-2062
▁First	-2063
▁Hours	-2064
▁Licen	-2065
▁Staff	-2066
▁deleg	-2067
▁direc	-2068
▁privi	-2069
▁seven	-2070
AGEMENT	-2071
alendar	-2072
eminars	-2073
ergency	-2074
itoring	-2075
knowled	-2076
ocation	-2077
olution	-2078
▁JUNIOR	-2079
▁MANUAL	-2080
▁Member	-2081
▁Online	-2082
▁Provid	-2083
▁assist	-2084
▁consid	-2085
▁papers	-2086
▁portal	-2087
▁sexual	-2088
▁suppor	-2089
▁thirty	-2090
cellence	-2091
▁However	-2092
▁Teacher	-2093
▁between	-2094
▁certain	-2095
▁competi	-2096
▁coordin	-2097
▁include	-2098
▁meeting	-2099
▁vacancy	-2100
▁welfare	-2101
▁OVERVIEW	-2102
▁Resource	-2103
▁Standard	-2104
▁approves	-2105
▁pictures	-2106
▁possible	-2107
▁receipts	-2108
▁Employees	-2109
▁Grievance	-2110
▁delegated	-2111
▁influence	-2112
▁proposals	-2113
▁MANAGEMENT	-2114
▁Retirement	-2115
fidentiality	-2116
▁obligations	-2117
▁preparation	-2118
▁transactions	-2119
▁institutional	-2120
▁international	-2121
AQ	-2122
IZ	-2123
PA	-2124
UB	-2125
de	-2126
ey	-2127
hy	-2128
ks	-2129
▁K	-2130
GAN	-2131
JES	-2132
OSA	-2133
TEA	-2134
aim	-2135
aly	-2136
ell	-2137
ept	-2138
ide	-2139
ile	-2140
ize	-2141
▁AD	-2142
▁AS	-2143
▁Ad	-2144
▁FI	-2145
▁RO	-2146
▁bl	-2147
▁di	-2148
▁go	-2149
▁vo	-2150
CHED	-2151
amed	-2152
comm	-2153
draw	-2154
ilos	-2155
iter	-2156
ophy	-2157
port	-2158
uard	-2159
wise	-2160
▁Ver	-2161
▁bec	-2162
▁day	-2163
▁ess	-2164
▁log	-2165
▁mat	-2166
▁sep	-2167
▁ver	-2168
AQTEA	-2169
agiar	-2170
aring	-2171
ellow	-2172
ended	-2173
esign	-2174
fford	-2175
itory	-2176
orrow	-2177
pared	-2178
rance	-2179
sures	-2180
tices	-2181
uspen	-2182
▁Only	-2183
▁Writ	-2184
▁acts	-2185
▁card	-2186
▁coun	-2187
▁free	-2188
▁kept	-2189
▁less	-2190
▁mark	-2191
VISION	-2192
selves	-2193
▁Audit	-2194
▁Direc	-2195
▁Order	-2196
▁Satur	-2197
▁These	-2198
▁above	-2199
▁citiz	-2200
▁cross	-2201
▁effec	-2202
▁expen	-2203
▁field	-2204
▁panel	-2205
▁prior	-2206
▁short	-2207
▁taken	-2208
▁techn	-2209
MISSION	-2210
eremony	-2211
ognized	-2212
tencies	-2213
▁Friday	-2214
▁Govern	-2215
▁Monday	-2216
▁determ	-2217
▁differ	-2218
▁duties	-2219
▁ground	-2220
▁health	-2221
▁higher	-2222
▁promot	-2223
▁skills	-2224
▁values	-2225
agiarism	-2226
ertified	-2227
ilosophy	-2228
▁Contact	-2229
▁Finance	-2230
▁Mission	-2231
▁Payment	-2232
▁actions	-2233
▁against	-2234
▁journal	-2235
▁officer	-2236
▁parties	-2237
uspension	-2238
▁ACADEMIC	-2239
▁Communic	-2240
▁Complete	-2241
▁December	-2242
▁Filipino	-2243
▁Proposal	-2244
▁ceremony	-2245
▁complete	-2246
▁consider	-2247
▁document	-2248
▁opportun	-2249
▁prepared	-2250
▁schedule	-2251
▁strictly	-2252
▁Community	-2253
▁Electoral	-2254
▁Implement	-2255
▁equipment	-2256
▁essential	-2257
▁evaluated	-2258
▁materials	-2259
▁portfolio	-2260
▁promotion	-2261
▁retention	-2262
creditation	-2263
oordination	-2264
▁Coordinate	-2265
▁encouraged	-2266
▁laboratory	-2267
▁maintained	-2268
▁outstanding	-2269
▁publication	-2270
▁professionalism	-2271
.,	-2272
AY	-2273
BA	-2274
DS	-2275
SB	-2276
TS	-2277
ie	-2278
ru	-2279
▁+	-2280
ALL	-2281
AND	-2282
HER	-2283
Rep	-2284
opy	-2285
rup	-2286
ssu	-2287
sub	-2288
uni	-2289
▁AL	-2290
▁Lo	-2291
▁Mr	-2292
▁sc	-2293
SMAW	-2294
aded	-2295
alty	-2296
ases	-2297
ency	-2298
grad	-2299
leph	-2300
lied	-2301
lies	-2302
llab	-2303
omes	-2304
pers	-2305
play	-2306
self	-2307
ship	-2308
ulle	-2309
urer	-2310
ysic	-2311
▁Ind	-2312
▁Ins	-2313
▁SEC	-2314
▁adv	-2315
▁exp	-2316
▁fav	-2317
▁inv	-2318
▁now	-2319
▁ref	-2320
▁sen	-2321
ERVIC	-2322
MENTS	-2323
VELOP	-2324
arily	-2325
avior	-2326
ental	-2327
enter	-2328
ffice	-2329
going	-2330
gress	-2331
ibute	-2332
ither	-2333
ligib	-2334
loqui	-2335
otive	-2336
▁Code	-2337
▁GRAD	-2338
▁GSIS	-2339
▁Issu	-2340
▁Prob	-2341
▁Requ	-2342
▁Supp	-2343
▁area	-2344
▁both	-2345
▁cond	-2346
▁conf	-2347
▁crim	-2348
▁hold	-2349
▁meas	-2350
▁most	-2351
▁open	-2352
▁outp	-2353
▁star	-2354
▁then	-2355
UATION	-2356
ically	-2357
itment	-2358
lished	-2359
ropped	-2360
seling	-2361
tended	-2362
tivity	-2363
▁Autom	-2364
▁CAJES	-2365
▁assig	-2366
▁board	-2367
▁books	-2368
▁colle	-2369
▁depos	-2370
▁distr	-2371
▁nomin	-2372
▁right	-2373
▁start	-2374
▁these	-2375
▁weeks	-2376
alaries	-2377
ecutive	-2378
lephone	-2379
loquium	-2380
octoral	-2381
program	-2382
trained	-2383
▁Collec	-2384
▁Grades	-2385
▁INFORM	-2386
▁Overse	-2387
▁Report	-2388
▁Secret	-2389
▁Thesis	-2390
▁afford	-2391
▁annual	-2392
▁demand	-2393
▁fellow	-2394
▁method	-2395
▁offers	-2396
▁others	-2397
▁placed	-2398
▁places	-2399
▁safety	-2400
ROLLMENT	-2401
Republic	-2402
plements	-2403
reasurer	-2404
tendance	-2405
▁Account	-2406
▁DEVELOP	-2407
▁English	-2408
▁Payroll	-2409
▁careers	-2410
▁dignity	-2411
▁finding	-2412
▁maximum	-2413
▁persons	-2414
▁private	-2415
▁proceed	-2416
▁release	-2417
▁writing	-2418
▁Benefits	-2419
▁Building	-2420
▁Saturday	-2421
▁Shielded	-2422
▁Teaching	-2423
▁Tertiary	-2424
▁agencies	-2425
▁election	-2426
▁entrance	-2427
▁expenses	-2428
▁scholars	-2429
▁selected	-2430
cellaneous	-2431
responding	-2432
tilization	-2433
▁acknowled	-2434
▁different	-2435
▁elections	-2436
▁graduates	-2437
▁integrity	-2438
▁political	-2439
▁vacancies	-2440
▁accounting	-2441
▁excellence	-2442
▁instructor	-2443
▁recognized	-2444
▁Criminology	-2445
▁DEVELOPMENT	-2446
▁INFORMATION	-2447
▁Procurement	-2448
▁recommended	-2449
▁Professional	-2450
▁applications	-2451
▁competencies	-2452
▁recommendation	-2453
▁Standardization	-2454
CI	-2455
OG	-2456
QU	-2457
SE	-2458
ke	-2459
yp	-2460
▁&	-2461
FER	-2462
IES	-2463
LIC	-2464
Man	-2465
Pre	-2466
TER	-2467
UND	-2468
Uni	-2469
bal	-2470
eal	-2471
ild	-2472
irc	-2473
ner	-2474
ops	-2475
pre	-2476
reg	-2477
tel	-2478
tit	-2479
▁Al	-2480
▁NO	-2481
▁ON	-2482
▁Sh	-2483
▁To	-2484
▁br	-2485
SOUR	-2486
ager	-2487
ancy	-2488
angg	-2489
arco	-2490
ayan	-2491
crim	-2492
crip	-2493
erve	-2494
ilit	-2495
iver	-2496
izes	-2497
olun	-2498
ored	-2499
osed	-2500
qual	-2501
rest	-2502
thle	-2503
tors	-2504
ular	-2505
▁DIS	-2506
▁Lat	-2507
▁Min	-2508
▁Mis	-2509
▁Out	-2510
▁Use	-2511
▁Vis	-2512
▁del	-2513
▁ins	-2514
▁pen	-2515
▁pub	-2516
▁uph	-2517
▁yet	-2518
board	-2519
emale	-2520
eries	-2521
graph	-2522
ights	-2523
ister	-2524
losed	-2525
tiven	-2526
▁FILE	-2527
▁PROC	-2528
▁Sund	-2529
▁cont	-2530
▁equi	-2531
▁last	-2532
▁self	-2533
▁slip	-2534
Member	-2535
SOURCE	-2536
alysis	-2537
author	-2538
eeping	-2539
idterm	-2540
onesty	-2541
tellec	-2542
tioned	-2543
uniang	-2544
▁After	-2545
▁Bayan	-2546
▁Check	-2547
▁Contr	-2548
▁Email	-2549
▁Human	-2550
▁Those	-2551
▁chang	-2552
▁drugs	-2553
▁human	-2554
▁marri	-2555
▁meets	-2556
▁minor	-2557
▁model	-2558
▁paper	-2559
▁retur	-2560
▁valid	-2561
▁volun	-2562
Proceed	-2563
chedule	-2564
cipline	-2565
clusion	-2566
conduct	-2567
olidays	-2568
osition	-2569
sources	-2570
ulletin	-2571
▁Access	-2572
▁Engage	-2573
▁Refund	-2574
▁SERVIC	-2575
▁Senior	-2576
▁ensure	-2577
▁growth	-2578
▁issues	-2579
▁perman	-2580
▁protec	-2581
▁uphold	-2582
▁vision	-2583
▁worksh	-2584
academic	-2585
structor	-2586
tiveness	-2587
▁Justice	-2588
▁Uniform	-2589
▁advance	-2590
▁develop	-2591
▁display	-2592
▁elected	-2593
▁ethical	-2594
▁forward	-2595
▁minimum	-2596
▁mission	-2597
▁results	-2598
▁subsidy	-2599
▁success	-2600
esignated	-2601
▁Incorpor	-2602
▁Scholars	-2603
▁Semester	-2604
▁contract	-2605
▁criteria	-2606
▁cultural	-2607
▁discount	-2608
▁evaluate	-2609
▁expected	-2610
▁graduate	-2611
▁measures	-2612
▁offenses	-2613
▁periodic	-2614
▁privileg	-2615
▁problems	-2616
▁projects	-2617
▁received	-2618
▁requests	-2619
▁seminars	-2620
angguniang	-2621
▁Extension	-2622
▁Political	-2623
▁Supervise	-2624
▁Telephone	-2625
▁candidate	-2626
▁clearance	-2627
▁ENROLLMENT	-2628
▁Plagiarism	-2629
▁affordable	-2630
▁applicants	-2631
▁assistance	-2632
▁individual	-2633
▁objectives	-2634
▁submission	-2635
▁themselves	-2636
▁vocational	-2637
▁improvement	-2638
▁maintenance	-2639
▁coordination	-2640
▁institutions	-2641
▁organization	-2642
▁Incorporators	-2643
▁corresponding	-2644
▁investigation	-2645
▁communications	-2646
▁identification	-2647
Ch	-2648
EE	-2649
HY	-2650
II	-2651
IL	-2652
IM	-2653
JT	-2654
NC	-2655
On	-2656
PE	-2657
Ph	-2658
To	-2659
az	-2660
io	-2661
tx	-2662
ww	-2663
ACT	-2664
ANS	-2665
END	-2666
ILO	-2667
LOW	-2668
Non	-2669
OAL	-2670
POR	-2671
Res	-2672
SOP	-2673
Sci	-2674
TIT	-2675
des	-2676
eer	-2677
emo	-2678
gal	-2679
ger	-2680
ick	-2681
ims	-2682
iqu	-2683
isk	-2684
not	-2685
oid	-2686
ona	-2687
par	-2688
ren	-2689
tim	-2690
txt	-2691
uts	-2692
▁AT	-2693
▁BS	-2694
▁HE	-2695
▁SH	-2696
▁VP	-2697
▁co	-2698
▁my	-2699
▁sp	-2700
▁tw	-2701
Comm	-2702
Crim	-2703
IZED	-2704
TACT	-2705
ames	-2706
ateg	-2707
back	-2708
enty	-2709
fess	-2710
hest	-2711
ired	-2712
ject	-2713
omen	-2714
peak	-2715
thly	-2716
ully	-2717
upon	-2718
▁Fac	-2719
▁Fil	-2720
▁NSO	-2721
▁OJT	-2722
▁Off	-2723
▁Pol	-2724
▁att	-2725
▁bal	-2726
▁cle	-2727
▁eng	-2728
▁fam	-2729
▁nor	-2730
▁sym	-2731
LOGAN	-2732
SOPHY	-2733
TIONS	-2734
anced	-2735
aster	-2736
first	-2737
gment	-2738
jects	-2739
oming	-2740
oring	-2741
posed	-2742
right	-2743
stall	-2744
▁Load	-2745
▁anti	-2746
▁circ	-2747
▁deem	-2748
▁disc	-2749
▁down	-2750
▁evol	-2751
▁feed	-2752
▁hair	-2753
▁list	-2754
▁prin	-2755
▁real	-2756
▁room	-2757
▁unex	-2758
▁unit	-2759
Manual	-2760
akehol	-2761
antees	-2762
arsity	-2763
atives	-2764
employ	-2765
ending	-2766
ferees	-2767
fessor	-2768
iction	-2769
ighest	-2770
lement	-2771
ounced	-2772
second	-2773
valent	-2774
▁Under	-2775
▁basic	-2776
▁being	-2777
▁cause	-2778
▁enfor	-2779
▁event	-2780
▁found	-2781
▁group	-2782
▁liter	-2783
▁needs	-2784
▁offer	-2785
▁resol	-2786
▁sixty	-2787
▁terms	-2788
▁using	-2789
▁where	-2790
▁while	-2791
ATIONAL	-2792
STUDENT	-2793
UNIFAST	-2794
atories	-2795
iplomas	-2796
student	-2797
tinuous	-2798
uration	-2799
visions	-2800
▁Closed	-2801
▁Parent	-2802
▁Period	-2803
▁Person	-2804
▁Review	-2805
▁Social	-2806
▁Sunday	-2807
▁accord	-2808
▁accoun	-2809
▁correc	-2810
▁credit	-2811
▁either	-2812
▁eligib	-2813
▁govern	-2814
▁honors	-2815
▁return	-2816
▁volunt	-2817
ILOSOPHY	-2818
aternity	-2819
ruitment	-2820
▁CONTACT	-2821
▁Digital	-2822
▁Ethical	-2823
▁Grading	-2824
▁Improve	-2825
▁Manager	-2826
▁Minimum	-2827
▁Monthly	-2828
▁Petarco	-2829
▁Proceed	-2830
▁Request	-2831
▁Results	-2832
▁Studies	-2833
▁Written	-2834
▁address	-2835
▁exceeds	-2836
▁failing	-2837
▁install	-2838
▁penalty	-2839
▁perform	-2840
▁reviews	-2841
▁undergo	-2842
President	-2843
Registrar	-2844
bursement	-2845
ification	-2846
▁Doctoral	-2847
▁External	-2848
▁Governor	-2849
▁Holidays	-2850
▁Location	-2851
▁Schedule	-2852
▁Sciences	-2853
▁absences	-2854
▁activity	-2855
▁analysis	-2856
▁composed	-2857
▁computer	-2858
▁feedback	-2859
▁function	-2860
▁guidance	-2861
▁intended	-2862
▁observed	-2863
▁returned	-2864
▁salaries	-2865
▁supervis	-2866
recognized	-2867
tellectual	-2868
▁Emergency	-2869
▁Insurance	-2870
▁Interview	-2871
▁Maintains	-2872
▁Probation	-2873
▁Retention	-2874
▁Secondary	-2875
▁Treasurer	-2876
▁announced	-2877
▁character	-2878
▁exceeding	-2879
▁otherwise	-2880
▁processed	-2881
▁regarding	-2882
▁selection	-2883
▁Automotive	-2884
▁Instructor	-2885
▁Leadership	-2886
▁Procedures	-2887
▁Resolution	-2888
▁determined	-2889
▁equivalent	-2890
▁graduating	-2891
▁monitoring	-2892
▁privileges	-2893
▁profession	-2894
▁provincial	-2895
▁recognizes	-2896
▁requesting	-2897
▁retirement	-2898
▁supporting	-2899
▁Association	-2900
▁Chairperson	-2901
▁Publication	-2902
▁participate	-2903
▁transaction	-2904
▁Disbursement	-2905
▁Institutions	-2906
▁confidential	-2907
▁departmental	-2908
▁accreditation	-2909
▁communication	-2910
▁responsibility	-2911
▁Confidentiality	-2912
Bo	-2913
De	-2914
Ex	-2915
HN	-2916
HR	-2917
IO	-2918
RO	-2919
TO	-2920
UM	-2921
UP	-2922
UT	-2923
ao	-2924
ca	-2925
fy	-2926
gh	-2927
gn	-2928
iv	-2929
pd	-2930
wh	-2931
yn	-2932
BER	-2933
ERS	-2934
IBI	-2935
ITH	-2936
RIC	-2937
SOA	-2938
TIV	-2939
TUR	-2940
VER	-2941
atr	-2942
ber	-2943
ebs	-2944
etw	-2945
hes	-2946
ink	-2947
non	-2948
▁EL	-2949
▁IS	-2950
▁OR	-2951
▁UN	-2952
▁ro	-2953
ACUL	-2954
DUCT	-2955
ECHN	-2956
ORDS	-2957
ULES	-2958
ared	-2959
arry	-2960
avao	-2961
ians	-2962
ilar	-2963
mits	-2964
omic	-2965
onic	-2966
orum	-2967
ough	-2968
quis	-2969
sess	-2970
stru	-2971
turb	-2972
▁PAY	-2973
▁SCH	-2974
▁SSG	-2975
▁Val	-2976
▁act	-2977
▁adj	-2978
▁age	-2979
▁cap	-2980
▁dam	-2981
▁did	-2982
▁ear	-2983
▁her	-2984
▁low	-2985
▁ren	-2986
▁sti	-2987
▁tes	-2988
ARTIC	-2989
aches	-2990
aking	-2991
comes	-2992
power	-2993
selor	-2994
stone	-2995
their	-2996
urate	-2997
ustry	-2998
▁EDUC	-2999
▁Exch	-3000
▁Fill	-3001
▁Plan	-3002
▁Sign	-3003
▁Summ	-3004
▁Webs	-3005
▁Week	-3006
▁aims	-3007
▁core	-3008
▁dish	-3009
▁logo	-3010
▁make	-3011
▁numb	-3012
▁read	-3013
▁seek	-3014
▁show	-3015
▁some	-3016
▁town	-3017
▁uses	-3018
ACULTY	-3019
cident	-3020
ciples	-3021
erring	-3022
erving	-3023
ferred	-3024
ground	-3025
tronic	-3026
ulting	-3027
ulture	-3028
urrent	-3029
versal	-3030
▁Cross	-3031
▁Davao	-3032
▁Level	-3033
▁Other	-3034
▁REGIS	-3035
▁Secur	-3036
▁Selec	-3037
▁about	-3038
▁among	-3039
▁autom	-3040
▁cases	-3041
▁check	-3042
▁clean	-3043
▁cover	-3044
▁exerc	-3045
▁lower	-3046
▁mayor	-3047
▁means	-3048
▁named	-3049
▁party	-3050
▁serve	-3051
▁voted	-3052
ARTICLE	-3053
However	-3054
college	-3055
ganized	-3056
taining	-3057
uardian	-3058
▁Accept	-3059
▁Junior	-3060
▁POLICY	-3061
▁PolSci	-3062
▁Result	-3063
▁Series	-3064
▁Sports	-3065
▁become	-3066
▁borrow	-3067
▁center	-3068
▁effect	-3069
▁except	-3070
▁filing	-3071
▁guided	-3072
▁needed	-3073
▁parent	-3074
▁salary	-3075
▁unless	-3076
▁vacant	-3077
Academic	-3078
LICATION	-3079
enrolled	-3080
fficient	-3081
graduate	-3082
programs	-3083
tication	-3084
ultation	-3085
▁CONDUCT	-3086
▁Element	-3087
▁RECORDS	-3088
▁Website	-3089
▁amended	-3090
▁consist	-3091
▁finally	-3092
▁funding	-3093
▁matters	-3094
▁medical	-3095
▁offered	-3096
▁outputs	-3097
▁percent	-3098
▁promote	-3099
▁reasons	-3100
▁studies	-3101
▁summary	-3102
andidates	-3103
iolations	-3104
ouncement	-3105
▁Criminal	-3106
▁Exchange	-3107
▁Graduate	-3108
▁POLICIES	-3109
▁Particip	-3110
▁Republic	-3111
▁SERVICES	-3112
▁advanced	-3113
▁annually	-3114
▁barangay	-3115
▁bulletin	-3116
▁certific	-3117
▁citizens	-3118
▁creation	-3119
▁criminal	-3120
▁eligible	-3121
▁existing	-3122
▁findings	-3123
▁interest	-3124
▁issuance	-3125
▁payments	-3126
▁planning	-3127
▁position	-3128
▁positive	-3129
▁pursuant	-3130
▁released	-3131
▁rendered	-3132
▁vocation	-3133
▁withdraw	-3134
Government	-3135
authorized	-3136
epartments	-3137
▁Assistant	-3138
▁Licensure	-3139
▁Secretary	-3140
▁Selection	-3141
▁applicant	-3142
▁practical	-3143
▁Accountant	-3144
▁Elementary	-3145
▁Harassment	-3146
▁Securities	-3147
▁accredited	-3148
▁classrooms	-3149
▁philosophy	-3150
▁registered	-3151
▁researcher	-3152
▁separation	-3153
▁throughout	-3154
▁violations	-3155
satisfactory	-3156
▁Sangguniang	-3157
▁Transferees	-3158
▁requirement	-3159
▁supervision	-3160
▁utilization	-3161
▁consultation	-3162
▁disbursement	-3163
▁participants	-3164
▁Accreditation	-3165
▁Communication	-3166
▁opportunities	-3167
▁presentations	-3168
▁professionals	-3169
▁implementation	-3170
▁professionally	-3171
%)	-3172
BE	-3173
MM	-3174
NN	-3175
ENS	-3176
GUL	-3177
HIP	-3178
ITS	-3179
JEC	-3180
REC	-3181
TOR	-3182
URS	-3183
UTH	-3184
alf	-3185
amb	-3186
arm	-3187
dem	-3188
ene	-3189
ify	-3190
ind	-3191
ird	-3192
irm	-3193
lim	-3194
nec	-3195
ody	-3196
sem	-3197
sex	-3198
tes	-3199
ume	-3200
ush	-3201
xim	-3202
▁AN	-3203
▁BE	-3204
▁DR	-3205
▁EX	-3206
▁II	-3207
▁LO	-3208
▁MA	-3209
▁Qu	-3210
▁fa	-3211
▁sm	-3212
CIAL	-3213
EDUR	-3214
HEIs	-3215
IBIG	-3216
ICAL	-3217
MPUS	-3218
acan	-3219
atis	-3220
aves	-3221
book	-3222
days	-3223
ders	-3224
four	-3225
head	-3226
iano	-3227
ides	-3228
ilHe	-3229
lets	-3230
load	-3231
lock	-3232
nons	-3233
oftw	-3234
orts	-3235
pact	-3236
posi	-3237
sing	-3238
tise	-3239
uild	-3240
umst	-3241
void	-3242
ynam	-3243
▁ARE	-3244
▁CMO	-3245
▁CPE	-3246
▁Col	-3247
▁Del	-3248
▁Ear	-3249
▁Fee	-3250
▁HEI	-3251
▁Has	-3252
▁MAR	-3253
▁Mar	-3254
▁PUB	-3255
▁Pac	-3256
▁Pag	-3257
▁Tim	-3258
▁Typ	-3259
▁Upd	-3260
▁bre	-3261
▁deg	-3262
▁den	-3263
▁dri	-3264
▁lic	-3265
▁lim	-3266
▁pop	-3267
▁por	-3268
▁wit	-3269
▁www	-3270
BERTO	-3271
UTHOR	-3272
aning	-3273
appro	-3274
arter	-3275
cused	-3276
ender	-3277
heres	-3278
legal	-3279
llabi	-3280
orsed	-3281
pired	-3282
ticum	-3283
uthen	-3284
wards	-3285
▁COMP	-3286
▁Copy	-3287
▁Drug	-3288
▁Fees	-3289
▁Func	-3290
▁Hall	-3291
▁Late	-3292
▁Mand	-3293
▁Port	-3294
▁Prac	-3295
▁QUAL	-3296
▁Rele	-3297
▁Rush	-3298
▁Test	-3299
▁They	-3300
▁Very	-3301
▁adop	-3302
▁evac	-3303
▁fast	-3304
▁goal	-3305
▁hand	-3306
▁here	-3307
▁home	-3308
▁love	-3309
▁male	-3310
▁many	-3311
▁norm	-3312
▁rank	-3313
▁risk	-3314
▁what	-3315
ANSFER	-3316
Office	-3317
amount	-3318
campus	-3319
cholas	-3320
gether	-3321
gistry	-3322
mitted	-3323
quated	-3324
ressed	-3325
rimand	-3326
sexual	-3327
ulsion	-3328
uthors	-3329
▁Colle	-3330
▁Daily	-3331
▁Grade	-3332
▁REGUL	-3333
▁Table	-3334
▁Valid	-3335
▁assis	-3336
▁build	-3337
▁child	-3338
▁could	-3339
▁daily	-3340
▁dynam	-3341
▁exper	-3342
▁faith	-3343
▁favor	-3344
▁heads	-3345
▁hires	-3346
▁inter	-3347
▁large	-3348
▁place	-3349
▁power	-3350
▁pregn	-3351
▁sensi	-3352
▁socie	-3353
▁softw	-3354
▁speak	-3355
▁train	-3356
▁whole	-3357
▁women	-3358
▁would	-3359
ambling	-3360
earcher	-3361
ecessor	-3362
ilitate	-3363
ologist	-3364
periors	-3365
sidered	-3366
ticular	-3367
▁AUTHOR	-3368
▁Checks	-3369
▁Handle	-3370
▁Master	-3371
▁Method	-3372
▁PhilHe	-3373
▁Protec	-3374
▁UAQTEA	-3375
▁Weekly	-3376
▁amount	-3377
▁attitu	-3378
▁change	-3379
▁deemed	-3380
▁female	-3381
▁infrac	-3382
▁instru	-3383
▁logged	-3384
▁marked	-3385
▁minors	-3386
▁months	-3387
▁posted	-3388
▁repair	-3389
▁reserv	-3390
▁strong	-3391
▁twenty	-3392
Research	-3393
approved	-3394
couraged	-3395
cription	-3396
ditional	-3397
gulation	-3398
personal	-3399
premises	-3400
semester	-3401
ximately	-3402
▁Ensures	-3403
▁Handles	-3404
▁Midterm	-3405
▁Organiz	-3406
▁Paciano	-3407
▁Provide	-3408
▁Puracan	-3409
▁Purpose	-3410
▁ROBERTO	-3411
▁Reports	-3412
▁Tuition	-3413
▁adheres	-3414
▁affairs	-3415
▁applies	-3416
▁colleag	-3417
▁degrees	-3418
▁demands	-3419
▁designs	-3420
▁discrim	-3421
▁failure	-3422
▁fastest	-3423
▁grading	-3424
▁grounds	-3425
▁highest	-3426
▁imposed	-3427
▁initial	-3428
▁involve	-3429
▁license	-3430
▁possess	-3431
▁serious	-3432
▁similar	-3433
▁started	-3434
▁submits	-3435
▁testing	-3436
▁varsity	-3437
▁warning	-3438
▁welding	-3439
portation	-3440
stitution	-3441
umstances	-3442
urricular	-3443
▁Calendar	-3444
▁Chairman	-3445
▁Colleges	-3446
▁Contract	-3447
▁Cultural	-3448
▁Director	-3449
▁Duration	-3450
▁Issuance	-3451
▁Oversees	-3452
▁Personal	-3453
▁Provides	-3454
▁Transfer	-3455
▁Visitors	-3456
▁accurate	-3457
▁assigned	-3458
▁behavior	-3459
▁calendar	-3460
▁directly	-3461
▁elective	-3462
▁endorsed	-3463
▁overload	-3464
▁recorded	-3465
▁registry	-3466
▁resident	-3467
▁reviewed	-3468
▁satisfac	-3469
▁software	-3470
▁stakehol	-3471
perimental	-3472
redecessor	-3473
registered	-3474
respective	-3475
semination	-3476
▁Assurance	-3477
▁Counselor	-3478
▁Functions	-3479
▁Institute	-3480
▁Mandatory	-3481
▁Professor	-3482
▁Promotion	-3483
▁addressed	-3484
▁buildings	-3485
▁complaint	-3486
▁deposited	-3487
▁displayed	-3488
▁effective	-3489
▁exercises	-3490
▁expertise	-3491
▁interview	-3492
▁nominated	-3493
▁performed	-3494
▁practices	-3495
▁protected	-3496
▁reference	-3497
▁requiring	-3498
▁superiors	-3499
▁workshops	-3500
▁Colloquium	-3501
▁Counseling	-3502
▁Curriculum	-3503
▁GRADUATION	-3504
▁PhilHealth	-3505
▁Production	-3506
▁Prohibited	-3507
▁Researcher	-3508
▁accordance	-3509
▁antiquated	-3510
▁background	-3511
▁conditions	-3512
▁considered	-3513
▁coordinate	-3514
▁discipline	-3515
▁evacuation	-3516
▁implements	-3517
▁internship	-3518
▁misconduct	-3519
▁particular	-3520
▁references	-3521
▁subsidized	-3522
▁Collections	-3523
▁Composition	-3524
▁Coordinator	-3525
▁Improvement	-3526
▁REGULATIONS	-3527
▁accountable	-3528
▁conferences	-3529
▁consecutive	-3530
▁departments	-3531
▁description	-3532
▁enforcement	-3533
▁methodology	-3534
▁recognition	-3535
▁termination	-3536
uthentication	-3537
▁Criminologist	-3538
▁Documentation	-3539
▁Miscellaneous	-3540
▁approximately	-3541
▁circumstances	-3542
▁Qualifications	-3543
▁Unsatisfactory	-3544
▁acknowledgment	-3545
▁discrimination	-3546
AB	-3547
AM	-3548
As	-3549
CR	-3550
CU	-3551
ET	-3552
Em	-3553
En	-3554
It	-3555
LY	-3556
SU	-3557
ni	-3558
sa	-3559
ANC	-3560
CON	-3561
Con	-3562
IRE	-3563
OOL	-3564
SEC	-3565
SSG	-3566
UCs	-3567
any	-3568
bol	-3569
ced	-3570
cto	-3571
edn	-3572
eti	-3573
ins	-3574
ocr	-3575
off	-3576
olo	-3577
oom	-3578
osp	-3579
oub	-3580
oud	-3581
ral	-3582
rep	-3583
spa	-3584
▁Am	-3585
▁Gr	-3586
▁NG	-3587
▁PE	-3588
▁SE	-3589
▁Sp	-3590
▁TO	-3591
▁fl	-3592
▁ra	-3593
▁wa	-3594
BSIT	-3595
BSOA	-3596
Dean	-3597
Form	-3598
Only	-3599
TIES	-3600
agaz	-3601
agna	-3602
angu	-3603
atus	-3604
augh	-3605
avel	-3606
ball	-3607
chan	-3608
chie	-3609
cond	-3610
hips	-3611
iber	-3612
ince	-3613
issu	-3614
ivil	-3615
long	-3616
must	-3617
nels	-3618
ocus	-3619
oper	-3620
otoc	-3621
pite	-3622
pons	-3623
reli	-3624
sequ	-3625
tegr	-3626
trac	-3627
umer	-3628
umni	-3629
urve	-3630
usti	-3631
yond	-3632
▁DEL	-3633
▁FOL	-3634
▁INS	-3635
▁NOT	-3636
▁Non	-3637
▁Rel	-3638
▁SHS	-3639
▁Str	-3640
▁TIT	-3641
▁UNI	-3642
▁aid	-3643
▁arr	-3644
▁clo	-3645
▁don	-3646
▁men	-3647
▁our	-3648
▁set	-3649
▁she	-3650
▁ste	-3651
▁tur	-3652
▁und	-3653
▁var	-3654
▁vou	-3655
▁way	-3656
▁wor	-3657
QUIRE	-3658
RICUL	-3659
TERED	-3660
TESDA	-3661
UBJEC	-3662
ached	-3663
after	-3664
aimed	-3665
aling	-3666
amper	-3667
andal	-3668
arian	-3669
ather	-3670
ednes	-3671
empor	-3672
ering	-3673
fully	-3674
ially	-3675
ingle	-3676
ising	-3677
iting	-3678
iture	-3679
izing	-3680
offic	-3681
ories	-3682
repro	-3683
requi	-3684
study	-3685
tence	-3686
▁ATTY	-3687
▁Cred	-3688
▁DOCU	-3689
▁Exam	-3690
▁FUND	-3691
▁GOAL	-3692
▁Octo	-3693
▁Open	-3694
▁Orig	-3695
▁Unit	-3696
▁bona	-3697
▁chan	-3698
▁chap	-3699
▁char	-3700
▁conc	-3701
▁done	-3702
▁doub	-3703
▁exec	-3704
▁gain	-3705
▁lead	-3706
▁link	-3707
▁liqu	-3708
▁none	-3709
▁noti	-3710
▁patr	-3711
▁ques	-3712
▁repl	-3713
▁sanc	-3714
▁team	-3715
▁test	-3716
▁thus	-3717
▁tops	-3718
▁true	-3719
▁were	-3720
▁wish	-3721
BSCrim	-3722
Employ	-3723
Physic	-3724
SUANCE	-3725
School	-3726
UAQTEA	-3727
achers	-3728
action	-3729
anteen	-3730
arized	-3731
ategic	-3732
atever	-3733
atural	-3734
chored	-3735
edient	-3736
ensive	-3737
ercise	-3738
ervice	-3739
etwork	-3740
follow	-3741
itting	-3742
ivered	-3743
ussion	-3744
within	-3745
▁Bookk	-3746
▁Books	-3747
▁Every	-3748
▁Field	-3749
▁Honor	-3750
▁Labor	-3751
▁Latin	-3752
▁STAND	-3753
▁Skill	-3754
▁TECHN	-3755
▁acces	-3756
▁athle	-3757
▁bring	-3758
▁carry	-3759
▁color	-3760
▁effor	-3761
▁focus	-3762
▁fully	-3763
▁honor	-3764
▁immer	-3765
▁justi	-3766
▁plans	-3767
▁relig	-3768
▁socio	-3769
▁state	-3770
▁value	-3771
▁whose	-3772
URRICUL	-3773
UniFAST	-3774
VISIONS	-3775
anguage	-3776
clusive	-3777
managed	-3778
ocratic	-3779
quiring	-3780
reliant	-3781
ruption	-3782
through	-3783
ulation	-3784
▁CAMPUS	-3785
▁FOLLOW	-3786
▁Mechan	-3787
▁Number	-3788
▁Physic	-3789
▁Rating	-3790
▁Return	-3791
▁SLOGAN	-3792
▁Sexual	-3793
▁Wednes	-3794
▁absent	-3795
▁accomp	-3796
▁adjust	-3797
▁attend	-3798
▁behalf	-3799
▁beyond	-3800
▁connec	-3801
▁consis	-3802
▁conver	-3803
▁dental	-3804
▁erring	-3805
▁exists	-3806
▁extend	-3807
▁income	-3808
▁normal	-3809
▁origin	-3810
▁passed	-3811
▁produc	-3812
▁reason	-3813
▁rights	-3814
▁simult	-3815
▁symbol	-3816
▁undert	-3817
ACADEMIC	-3818
Trustees	-3819
agazines	-3820
aneously	-3821
encement	-3822
endments	-3823
ibrarian	-3824
tivities	-3825
vailable	-3826
▁Control	-3827
▁FACULTY	-3828
▁Failure	-3829
▁MISSION	-3830
▁Members	-3831
▁October	-3832
▁REQUIRE	-3833
▁balance	-3834
▁disturb	-3835
▁dropped	-3836
▁ensures	-3837
▁growing	-3838
▁himself	-3839
▁limited	-3840
▁managed	-3841
▁married	-3842
▁meaning	-3843
▁observe	-3844
▁parents	-3845
▁passing	-3846
▁payroll	-3847
▁portion	-3848
▁publish	-3849
▁revised	-3850
▁society	-3851
▁systems	-3852
▁voucher	-3853
cholastic	-3854
following	-3855
formative	-3856
struction	-3857
▁DOCUMENT	-3858
▁ELECTION	-3859
▁Exercise	-3860
▁Industry	-3861
▁Licensed	-3862
▁Offenses	-3863
▁PROCEDUR	-3864
▁Subjects	-3865
▁anchored	-3866
▁attached	-3867
▁capstone	-3868
▁channels	-3869
▁credited	-3870
▁distribu	-3871
▁evolving	-3872
▁incident	-3873
▁incoming	-3874
▁manpower	-3875
▁obedient	-3876
▁progress	-3877
▁visitors	-3878
▁whatever	-3879
Accounting	-3880
Commission	-3881
aintenance	-3882
enrollment	-3883
vocational	-3884
▁ADMISSION	-3885
▁Associate	-3886
▁Certified	-3887
▁Elections	-3888
▁Officials	-3889
▁Represent	-3890
▁Servicing	-3891
▁attitudes	-3892
▁certified	-3893
▁delivered	-3894
▁developed	-3895
▁fellowmen	-3896
▁governing	-3897
▁maintains	-3898
▁organized	-3899
▁permanent	-3900
▁presented	-3901
▁qualified	-3902
▁supervise	-3903
▁technical	-3904
▁unexpired	-3905
▁voluntary	-3906
information	-3907
▁Attendance	-3908
▁Candidates	-3909
▁Credential	-3910
▁Designated	-3911
▁PHILOSOPHY	-3912
▁PROVISIONS	-3913
▁Philippine	-3914
▁Suspension	-3915
▁continuing	-3916
▁contribute	-3917
▁dishonesty	-3918
▁employable	-3919
▁permission	-3920
▁personally	-3921
▁principles	-3922
▁provisions	-3923
▁regardless	-3924
▁suspension	-3925
▁Institution	-3926
▁Outstanding	-3927
▁Trinidadnon	-3928
▁complainant	-3929
▁discouraged	-3930
▁infractions	-3931
▁installment	-3932
▁involvement	-3933
▁predecessor	-3934
▁procurement	-3935
▁REQUIREMENTS	-3936
▁academically	-3937
▁announcement	-3938
▁consistently	-3939
▁establishing	-3940
▁intellectual	-3941
▁probationary	-3942
▁scholarships	-3943
▁authorization	-3944
▁dissemination	-3945
▁representative	-3946
▁simultaneously	-3947
▁competitiveness	-3948
AV	-3949
Ad	-3950
At	-3951
Be	-3952
CT	-3953
DR	-3954
EF	-3955
FE	-3956
IG	-3957
IQ	-3958
KS	-3959
NO	-3960
OS	-3961
PT	-3962
VO	-3963
YY	-3964
ae	-3965
aj	-3966
ax	-3967
bs	-3968
ft	-3969
jo	-3970
ARE	-3971
ARS	-3972
ASS	-3973
ESS	-3974
FHE	-3975
FIR	-3976
ILL	-3977
ITA	-3978
LET	-3979
LOY	-3980
May	-3981
OGN	-3982
OGY	-3983
PAA	-3984
PAR	-3985
PEN	-3986
PER	-3987
SAR	-3988
SEM	-3989
Sec	-3990
TEN	-3991
TES	-3992
VIN	-3993
adc	-3994
adm	-3995
afe	-3996
app	-3997
arr	-3998
asi	-3999
ath	-4000
bas	-4001
beh	-4002
chi	-4003
cia	-4004
din	-4005
ebu	-4006
ems	-4007
ief	-4008
isd	-4009
kew	-4010
lie	-4011
may	-4012
nov	-4013
ont	-4014
rin	-4015
vic	-4016
yes	-4017
▁BA	-4018
▁Be	-4019
▁CL	-4020
▁EV	-4021
▁Fr	-4022
▁GC	-4023
▁IT	-4024
▁Ob	-4025
▁Sc	-4026
▁Sy	-4027
▁TH	-4028
▁ed	-4029
▁gu	-4030
▁il	-4031
▁oc	-4032
ACUP	-4033
AWOL	-4034
ENEF	-4035
ENER	-4036
ENTS	-4037
ESID	-4038
Each	-4039
FUND	-4040
Head	-4041
IFIC	-4042
INAL	-4043
INAN	-4044
IQAS	-4045
Maya	-4046
OVER	-4047
TICS	-4048
TITU	-4049
TURN	-4050
Year	-4051
ajes	-4052
ajor	-4053
anch	-4054
assi	-4055
ault	-4056
cend	-4057
econ	-4058
edic	-4059
eeds	-4060
elfo	-4061
ewal	-4062
fide	-4063
gets	-4064
ging	-4065
guid	-4066
hile	-4067
hood	-4068
ifts	-4069
inic	-4070
iple	-4071
ique	-4072
itae	-4073
itle	-4074
like	-4075
ming	-4076
oman	-4077
only	-4078
oror	-4079
orse	-4080
pend	-4081
quit	-4082
sigh	-4083
that	-4084
tinc	-4085
tity	-4086
tric	-4087
ulti	-4088
umul	-4089
ural	-4090
uted	-4091
ways	-4092
▁ALS	-4093
▁ANY	-4094
▁COA	-4095
▁Cap	-4096
▁DOH	-4097
▁EMP	-4098
▁End	-4099
▁FHE	-4100
▁FOR	-4101
▁Gar	-4102
▁His	-4103
▁NBI	-4104
▁Nom	-4105
▁OUT	-4106
▁Ori	-4107
▁PhD	-4108
▁SAL	-4109
▁SEL	-4110
▁Vac	-4111
▁bid	-4112
▁cab	-4113
▁cho	-4114
▁fix	-4115
▁jur	-4116
▁mid	-4117
▁old	-4118
▁sto	-4119
▁sty	-4120
▁sug	-4121
▁wel	-4122
After	-4123
Based	-4124
Board	-4125
Chair	-4126
Direc	-4127
Honor	-4128
ITION	-4129
LOYEE	-4130
OLOGY	-4131
REGIS	-4132
RULES	-4133
SARIO	-4134
UDITH	-4135
afety	-4136
ailed	-4137
antit	-4138
apher	-4139
arest	-4140
aving	-4141
cause	-4142
feree	-4143
forms	-4144
ician	-4145
ifies	-4146
imize	-4147
inets	-4148
iques	-4149
itter	-4150
labor	-4151
logan	-4152
night	-4153
oding	-4154
oking	-4155
ounge	-4156
ounts	-4157
ption	-4158
reach	-4159
roadc	-4160
shall	-4161
third	-4162
ticle	-4163
undry	-4164
units	-4165
where	-4166
▁Atty	-4167
▁Avel	-4168
▁Bank	-4169
▁Cebu	-4170
▁City	-4171
▁Cons	-4172
▁Demo	-4173
▁Engr	-4174
▁Free	-4175
▁HEIs	-4176
▁Keep	-4177
▁Know	-4178
▁LOAD	-4179
▁List	-4180
▁PROP	-4181
▁Page	-4182
▁Part	-4183
▁Peer	-4184
▁Rice	-4185
▁Sick	-4186
▁Solo	-4187
▁True	-4188
▁Upon	-4189
▁When	-4190
▁banc	-4191
▁code	-4192
▁cust	-4193
▁decl	-4194
▁desk	-4195
▁disp	-4196
▁evid	-4197
▁fair	-4198
▁fide	-4199
▁furn	-4200
▁harm	-4201
▁head	-4202
▁land	-4203
▁like	-4204
▁look	-4205
▁mand	-4206
▁memo	-4207
▁paid	-4208
▁peer	-4209
▁ring	-4210
▁shif	-4211
▁sole	-4212
▁turn	-4213
CTIONS	-4214
ENERAL	-4215
RECOGN	-4216
TIONAL	-4217
Thesis	-4218
UBJECT	-4219
adelfo	-4220
adline	-4221
anging	-4222
assing	-4223
cepted	-4224
charge	-4225
chieve	-4226
chived	-4227
cluded	-4228
concer	-4229
dition	-4230
entive	-4231
ercial	-4232
excess	-4233
fourth	-4234
itiate	-4235
kewise	-4236
lishes	-4237
llabus	-4238
manual	-4239
missed	-4240
naires	-4241
number	-4242
ocated	-4243
office	-4244
ourney	-4245
period	-4246
refund	-4247
requis	-4248
riting	-4249
rought	-4250
ternet	-4251
tinent	-4252
tively	-4253
ucture	-4254
udgets	-4255
urveys	-4256
▁AACUP	-4257
▁AMEND	-4258
▁Athle	-4259
▁Award	-4260
▁BENEF	-4261
▁Chief	-4262
▁Claim	-4263
▁Class	-4264
▁Delos	-4265
▁FINAN	-4266
▁GCash	-4267
▁Legal	-4268
▁Magna	-4269
▁Media	-4270
▁Needs	-4271
▁Petty	-4272
▁REPOR	-4273
▁Repos	-4274
▁Reyes	-4275
▁Roman	-4276
▁Summa	-4277
▁There	-4278
▁Treat	-4279
▁Types	-4280
▁advis	-4281
▁afore	-4282
▁assum	-4283
▁avoid	-4284
▁basis	-4285
▁black	-4286
▁block	-4287
▁brand	-4288
▁clear	-4289
▁court	-4290
▁dress	-4291
▁equit	-4292
▁exist	-4293
▁famil	-4294
▁filed	-4295
▁forms	-4296
▁gifts	-4297
▁holds	-4298
▁innov	-4299
▁intim	-4300
▁legal	-4301
▁maybe	-4302
▁newly	-4303
▁partn	-4304
▁refer	-4305
▁separ	-4306
▁soror	-4307
▁table	-4308
▁users	-4309
▁vitae	-4310
Library	-4311
acebook	-4312
arterly	-4313
cellent	-4314
erships	-4315
forming	-4316
ignment	-4317
inciple	-4318
itative	-4319
organiz	-4320
otocopy	-4321
pecific	-4322
reproof	-4323
respect	-4324
rupting	-4325
section	-4326
stitute	-4327
vention	-4328
▁Action	-4329
▁Appeal	-4330
▁Encour	-4331
▁Filing	-4332
▁Format	-4333
▁Garcia	-4334
▁Integr	-4335
▁Latest	-4336
▁Orient	-4337
▁Portal	-4338
▁Prelim	-4339
▁RATING	-4340
▁Record	-4341
▁SCHOOL	-4342
▁Supply	-4343
▁Verbal	-4344
▁appeal	-4345
▁appear	-4346
▁assign	-4347
▁associ	-4348
▁attire	-4349
▁backup	-4350
▁belong	-4351
▁better	-4352
▁boards	-4353
▁branch	-4354
▁cannot	-4355
▁caused	-4356
▁compon	-4357
▁counts	-4358
▁damage	-4359
▁engage	-4360
▁family	-4361
▁favors	-4362
▁format	-4363
▁former	-4364
▁headed	-4365
▁herein	-4366
▁impact	-4367
▁import	-4368
▁impose	-4369
▁invent	-4370
▁jurisd	-4371
▁leaves	-4372
▁longer	-4373
▁namely	-4374
▁newspa	-4375
▁orient	-4376
▁police	-4377
▁render	-4378
▁resume	-4379
▁senior	-4380
▁stored	-4381
▁summon	-4382
▁suppli	-4383
▁taking	-4384
▁tempor	-4385
▁tenure	-4386
▁theory	-4387
▁topics	-4388
▁turned	-4389
▁unique	-4390
▁visits	-4391
▁waiver	-4392
Director	-4393
ENSATION	-4394
Guardian	-4395
Shielded	-4396
ampering	-4397
atistics	-4398
behavior	-4399
cendancy	-4400
economic	-4401
emoranda	-4402
enerally	-4403
quential	-4404
roadcast	-4405
tinction	-4406
▁Actions	-4407
▁Adviser	-4408
▁Article	-4409
▁Authors	-4410
▁Avelino	-4411
▁Content	-4412
▁Dropped	-4413
▁Funding	-4414
▁History	-4415
▁INSTITU	-4416
▁Laundry	-4417
▁Methods	-4418
▁Oversee	-4419
▁PAYMENT	-4420
▁PayMaya	-4421
▁Private	-4422
▁QUALITY	-4423
▁REGISTR	-4424
▁ROSARIO	-4425
▁Support	-4426
▁Undergo	-4427
▁Updated	-4428
▁amounts	-4429
▁applied	-4430
▁arrange	-4431
▁budgets	-4432
▁citizen	-4433
▁concern	-4434
▁confirm	-4435
▁conflic	-4436
▁contact	-4437
▁council	-4438
▁credits	-4439
▁culture	-4440
▁decorum	-4441
▁defense	-4442
▁defined	-4443
▁despite	-4444
▁digital	-4445
▁hearing	-4446
▁helping	-4447
▁illegal	-4448
▁keeping	-4449
▁leaders	-4450
▁methods	-4451
▁nearest	-4452
▁network	-4453
▁periods	-4454
▁playing	-4455
▁posting	-4456
▁problem	-4457
▁refunds	-4458
▁renamed	-4459
▁syllabi	-4460
▁thereby	-4461
▁upholds	-4462
▁wearing	-4463
Administr	-4464
Employees	-4465
Honorable	-4466
Universal	-4467
abilities	-4468
administr	-4469
enrolment	-4470
implement	-4471
mentioned	-4472
qualified	-4473
requisite	-4474
ternative	-4475
▁BENEFITS	-4476
▁Citation	-4477
▁Criteria	-4478
▁Demotion	-4479
▁Diplomas	-4480
▁EMPLOYEE	-4481
▁Elective	-4482
▁Electric	-4483
▁Grantees	-4484
▁Informed	-4485
▁Initiate	-4486
▁Internet	-4487
▁OFFICERS	-4488
▁Receipts	-4489
▁Teachers	-4490
▁Vacation	-4491
▁accounts	-4492
▁archived	-4493
▁bonafide	-4494
▁booklets	-4495
▁borrowed	-4496
▁breaches	-4497
▁cabinets	-4498
▁changing	-4499
▁chapters	-4500
▁colleges	-4501
▁consolid	-4502
▁designed	-4503
▁diplomas	-4504
▁disposal	-4505
▁evidence	-4506
▁gambling	-4507
▁grantees	-4508
▁granting	-4509
▁involved	-4510
▁language	-4511
▁literacy	-4512
▁marriage	-4513
▁meetings	-4514
▁nominate	-4515
▁numbered	-4516
▁obtained	-4517
▁outcomes	-4518
▁outgoing	-4519
▁outreach	-4520
▁practice	-4521
▁pregnant	-4522
▁promotes	-4523
▁pursuing	-4524
▁question	-4525
▁receives	-4526
▁register	-4527
▁religion	-4528
▁resolved	-4529
▁slippers	-4530
▁starting	-4531
▁supports	-4532
▁teachers	-4533
▁tertiary	-4534
▁together	-4535
▁transpar	-4536
Physicians	-4537
RECOGNIZED	-4538
Violations	-4539
antitative	-4540
aternities	-4541
conditions	-4542
refundable	-4543
sibilities	-4544
▁Directors	-4545
▁Equipment	-4546
▁Executive	-4547
▁FINANCIAL	-4548
▁FOLLOWING	-4549
▁Filadelfo	-4550
▁Incentive	-4551
▁Knowledge	-4552
▁Maternity	-4553
▁Paternity	-4554
▁Physician	-4555
▁Quarterly	-4556
▁REPORTING	-4557
▁Recommend	-4558
▁Relations	-4559
▁Structure	-4560
▁Technical	-4561
▁Wednesday	-4562
▁accounted	-4563
▁allocated	-4564
▁automatic	-4565
▁candidacy	-4566
▁collected	-4567
▁committee	-4568
▁condition	-4569
▁dismissal	-4570
▁emergency	-4571
▁employers	-4572
▁existence	-4573
▁expulsion	-4574
▁fireproof	-4575
▁grievance	-4576
▁immediate	-4577
▁immersion	-4578
▁initiated	-4579
▁magazines	-4580
▁memoranda	-4581
▁ownership	-4582
▁pertinent	-4583
▁processes	-4584
▁published	-4585
▁registrar	-4586
▁regularly	-4587
▁reprimand	-4588
▁requested	-4589
▁resulting	-4590
▁sanctions	-4591
▁sensitive	-4592
▁strategic	-4593
▁temporary	-4594
development	-4595
examination	-4596
institution	-4597
vestigation	-4598
▁AMENDMENTS	-4599
▁Amendments	-4600
▁Assessment	-4601
▁Assistance	-4602
▁Commercial	-4603
▁Continuing	-4604
▁Continuous	-4605
▁Facilitate	-4606
▁Guidelines	-4607
▁Implements	-4608
▁Monitoring	-4609
▁Objectives	-4610
▁Philosophy	-4611
▁Protection	-4612
▁References	-4613
▁Regulation	-4614
▁Repository	-4615
▁Supervises	-4616
▁Transitory	-4617
▁accessible	-4618
▁colleagues	-4619
▁colloquium	-4620
▁continuous	-4621
▁counseling	-4622
▁democratic	-4623
▁disruption	-4624
▁electronic	-4625
▁encourages	-4626
▁evaluators	-4627
▁innovation	-4628
▁integrated	-4629
▁literature	-4630
▁networking	-4631
▁officially	-4632
▁physically	-4633
▁previously	-4634
▁respondent	-4635
▁sororities	-4636
▁techniques	-4637
Trinidadnons	-4638
experimental	-4639
▁EDUCATIONAL	-4640
▁Maintenance	-4641
▁Orientation	-4642
▁PUBLICATION	-4643
▁Recruitment	-4644
▁collections	-4645
▁coordinated	-4646
▁effectively	-4647
▁establishes	-4648
▁opportunity	-4649
▁orientation	-4650
▁permanently	-4651
▁recruitment	-4652
▁supervisory	-4653
▁COMPENSATION	-4654
▁Departmental	-4655
▁Participants	-4656
▁Probationary	-4657
▁Unauthorized	-4658
▁acknowledged	-4659
▁jurisdiction	-4660
▁laboratories	-4661
▁notification	-4662
▁partnerships	-4663
▁publications	-4664
▁satisfaction	-4665
▁stakeholders	-4666
▁Encouragement	-4667
▁INSTITUTIONAL	-4668
▁certification	-4669
▁credentialing	-4670
▁effectiveness	-4671
▁miscellaneous	-4672
▁participating	-4673
▁Authentication	-4674
▁Communications	-4675
▁Implementation	-4676
▁Transportation	-4677
▁aforementioned	-4678
▁considerations	-4679
▁questionnaires	-4680
▁specialization	-4681
▁confidentiality	-4682
▁recommendations	-4683
▁representatives	-4684
);	-4685
AK	-4686
AP	-4687
An	-4688
BR	-4689
CL	-4690
Cl	-4691
DE	-4692
Go	-4693
IV	-4694
NE	-4695
OD	-4696
OF	-4697
PH	-4698
PR	-4699
RU	-4700
SC	-4701
TA	-4702
Te	-4703
WN	-4704
do	-4705
du	-4706
pt	-4707
sp	-4708
xy	-4709
yc	-4710
ym	-4711
”,	-4712
”.	-4713
▁=	-4714
AIN	-4715
ALS	-4716
ARD	-4717
ATA	-4718
Ass	-4719
CES	-4720
CRE	-4721
DEC	-4722
EES	-4723
ELF	-4724
ERN	-4725
IAN	-4726
LEC	-4727
MIN	-4728
ONS	-4729
ORS	-4730
OTC	-4731
PEC	-4732
PRE	-4733
ROM	-4734
WTS	-4735
alk	-4736
aug	-4737
eet	-4738
eng	-4739
ext	-4740
fin	-4741
hab	-4742
ips	-4743
irt	-4744
job	-4745
joy	-4746
jud	-4747
nal	-4748
ney	-4749
obs	-4750
ote	-4751
pay	-4752
ped	-4753
rem	-4754
ris	-4755
rop	-4756
uck	-4757
ums	-4758
wer	-4759
wor	-4760
ype	-4761
zes	-4762
▁BY	-4763
▁By	-4764
▁CR	-4765
▁Di	-4766
▁Go	-4767
▁Jr	-4768
▁OT	-4769
▁SA	-4770
▁SK	-4771
▁SU	-4772
▁Sm	-4773
▁TU	-4774
▁Yr	-4775
▁dr	-4776
▁es	-4777
▁ir	-4778
ACCO	-4779
ALTY	-4780
ARDS	-4781
BEEd	-4782
BSEd	-4783
DECS	-4784
FETY	-4785
FICE	-4786
FIRM	-4787
GOAL	-4788
HEIR	-4789
ILLS	-4790
IMES	-4791
LUCs	-4792
ORAL	-4793
Prom	-4794
TIVE	-4795
URSE	-4796
WNER	-4797
aced	-4798
alic	-4799
alks	-4800
alsi	-4801
amen	-4802
angs	-4803
ario	-4804
atch	-4805
case	-4806
demp	-4807
died	-4808
duce	-4809
efin	-4810
elec	-4811
empl	-4812
ends	-4813
ened	-4814
fill	-4815
five	-4816
grow	-4817
help	-4818
hmen	-4819
ierc	-4820
ighb	-4821
iled	-4822
iolo	-4823
lege	-4824
lete	-4825
lips	-4826
lled	-4827
mosp	-4828
nasi	-4829
ners	-4830
oned	-4831
osen	-4832
prac	-4833
rain	-4834
real	-4835
riad	-4836
ried	-4837
riev	-4838
rown	-4839
rust	-4840
said	-4841
stab	-4842
such	-4843
take	-4844
teno	-4845
tent	-4846
them	-4847
this	-4848
tial	-4849
ught	-4850
utes	-4851
will	-4852
▁ABS	-4853
▁ADC	-4854
▁Abs	-4855
▁Att	-4856
▁Aud	-4857
▁Bas	-4858
▁Def	-4859
▁Dep	-4860
▁GSO	-4861
▁HIG	-4862
▁IDs	-4863
▁Job	-4864
▁Jud	-4865
▁LPT	-4866
▁Let	-4867
▁One	-4868
▁Own	-4869
▁Ros	-4870
▁Sep	-4871
▁Uni	-4872
▁adm	-4873
▁aff	-4874
▁agr	-4875
▁aud	-4876
▁cat	-4877
▁cut	-4878
▁deb	-4879
▁flo	-4880
▁gad	-4881
▁gre	-4882
▁lat	-4883
▁put	-4884
▁qui	-4885
▁rem	-4886
▁sci	-4887
▁sex	-4888
▁sus	-4889
▁tag	-4890
▁upd	-4891
▁wea	-4892
▁web	-4893
Cajes	-4894
EMENT	-4895
ENCES	-4896
FINAL	-4897
Human	-4898
ITIES	-4899
OLARS	-4900
OTHER	-4901
URSES	-4902
Under	-4903
ables	-4904
adily	-4905
aging	-4906
allen	-4907
arial	-4908
asing	-4909
augur	-4910
ayers	-4911
azing	-4912
basic	-4913
being	-4914
contr	-4915
eline	-4916
embly	-4917
endit	-4918
ensic	-4919
erate	-4920
erves	-4921
force	-4922
heads	-4923
ickly	-4924
ifice	-4925
inees	-4926
ished	-4927
ishes	-4928
isted	-4929
lling	-4930
nalia	-4931
odian	-4932
olice	-4933
olley	-4934
onstr	-4935
order	-4936
otion	-4937
ought	-4938
ously	-4939
ownlo	-4940
place	-4941
posia	-4942
rated	-4943
reath	-4944
rehen	-4945
ridge	-4946
rings	-4947
staff	-4948
there	-4949
these	-4950
thing	-4951
tingu	-4952
tisfy	-4953
uable	-4954
unger	-4955
uture	-4956
vince	-4957
volve	-4958
which	-4959
worth	-4960
▁Bona	-4961
▁CODE	-4962
▁Cler	-4963
▁Cris	-4964
▁DATA	-4965
▁DEED	-4966
▁EVAL	-4967
▁Each	-4968
▁FEES	-4969
▁FORM	-4970
▁INST	-4971
▁LGUs	-4972
▁Lang	-4973
▁MAEd	-4974
▁Male	-4975
▁Phys	-4976
▁Prin	-4977
▁Room	-4978
▁SALE	-4979
▁Tail	-4980
▁Take	-4981
▁Viol	-4982
▁WELF	-4983
▁Wise	-4984
▁YEAR	-4985
▁alco	-4986
▁best	-4987
▁blue	-4988
▁deal	-4989
▁deny	-4990
▁econ	-4991
▁fold	-4992
▁fore	-4993
▁fost	-4994
▁four	-4995
▁game	-4996
▁gate	-4997
▁guil	-4998
▁high	-4999
▁kits	-5000
▁lear	-5001
▁lone	-5002
▁ment	-5003
▁race	-5004
▁rest	-5005
▁roll	-5006
▁rule	-5007
▁scre	-5008
▁stay	-5009
▁took	-5010
▁vain	-5011
▁warr	-5012
▁wife	-5013
ACCOUN	-5014
Before	-5015
During	-5016
OFFICE	-5017
Policy	-5018
SLOGAN	-5019
Sexual	-5020
agraph	-5021
assemb	-5022
atched	-5023
ceding	-5024
conduc	-5025
filled	-5026
formal	-5027
graphy	-5028
hether	-5029
ildren	-5030
includ	-5031
istics	-5032
itored	-5033
iversi	-5034
judice	-5035
laints	-5036
licate	-5037
liness	-5038
nasium	-5039
pelled	-5040
posing	-5041
priate	-5042
proper	-5043
reason	-5044
retion	-5045
ritten	-5046
submit	-5047
superv	-5048
thesis	-5049
titled	-5050
torney	-5051
ularly	-5052
undred	-5053
values	-5054
velope	-5055
warded	-5056
▁Batch	-5057
▁CLASS	-5058
▁Estab	-5059
▁FUNDS	-5060
▁OTHER	-5061
▁OWNER	-5062
▁Panel	-5063
▁RETEN	-5064
▁RULES	-5065
▁Rules	-5066
▁SHALL	-5067
▁Spear	-5068
▁Steno	-5069
▁THEIR	-5070
▁affec	-5071
▁agree	-5072
▁alike	-5073
▁atten	-5074
▁belie	-5075
▁civil	-5076
▁coach	-5077
▁death	-5078
▁doubt	-5079
▁drill	-5080
▁email	-5081
▁enjoy	-5082
▁faced	-5083
▁forth	-5084
▁graph	-5085
▁great	-5086
▁hards	-5087
▁indic	-5088
▁issue	-5089
▁laugh	-5090
▁malic	-5091
▁medic	-5092
▁names	-5093
▁noise	-5094
▁owner	-5095
▁pangs	-5096
▁pants	-5097
▁pierc	-5098
▁press	-5099
▁print	-5100
▁recip	-5101
▁recre	-5102
▁refus	-5103
▁rehab	-5104
▁resid	-5105
▁sheet	-5106
▁still	-5107
▁stopp	-5108
▁style	-5109
▁topic	-5110
▁trips	-5111
▁wages	-5112
▁walks	-5113
▁world	-5114
Affairs	-5115
CONFIRM	-5116
ationed	-5117
ception	-5118
chnical	-5119
claimed	-5120
classes	-5121
emplary	-5122
entials	-5123
entives	-5124
etition	-5125
faculty	-5126
graphic	-5127
heating	-5128
ication	-5129
idating	-5130
ighting	-5131
ingness	-5132
ishment	-5133
members	-5134
ounding	-5135
outside	-5136
reshmen	-5137
ropping	-5138
service	-5139
subject	-5140
turning	-5141
ullying	-5142
ultiple	-5143
▁Alumni	-5144
▁Author	-5145
▁Female	-5146
▁Former	-5147
▁HIGHER	-5148
▁JUDITH	-5149
▁Judith	-5150
▁Letter	-5151
▁Manage	-5152
▁Police	-5153
▁REFUND	-5154
▁SKILLS	-5155
▁Safety	-5156
▁Secure	-5157
▁Skills	-5158
▁Subsid	-5159
▁Summer	-5160
▁acquis	-5161
▁across	-5162
▁allows	-5163
▁always	-5164
▁became	-5165
▁caught	-5166
▁chairs	-5167
▁chosen	-5168
▁classi	-5169
▁decade	-5170
▁depend	-5171
▁drives	-5172
▁earned	-5173
▁enough	-5174
▁events	-5175
▁evolve	-5176
▁excess	-5177
▁facing	-5178
▁formul	-5179
▁giving	-5180
▁guides	-5181
▁inspec	-5182
▁liquor	-5183
▁manner	-5184
▁matter	-5185
▁myriad	-5186
▁neighb	-5187
▁online	-5188
▁option	-5189
▁output	-5190
▁patron	-5191
▁permit	-5192
▁player	-5193
▁preven	-5194
▁prides	-5195
▁rating	-5196
▁redemp	-5197
▁shared	-5198
▁single	-5199
▁status	-5200
▁sugges	-5201
▁trials	-5202
▁vandal	-5203
▁verbal	-5204
▁volley	-5205
ISSUANCE	-5206
MMISSION	-5207
OLARSHIP	-5208
TRANSFER	-5209
TRINIDAD	-5210
UNCTIONS	-5211
allenges	-5212
approval	-5213
building	-5214
ensation	-5215
ewriting	-5216
gressman	-5217
guidance	-5218
internal	-5219
issuance	-5220
ittering	-5221
mosphere	-5222
official	-5223
olutions	-5224
orrowers	-5225
orsement	-5226
position	-5227
romising	-5228
subjects	-5229
teaching	-5230
tinuance	-5231
trinidad	-5232
urrently	-5233
ymnasium	-5234
▁Applied	-5235
▁Auditor	-5236
▁GENERAL	-5237
▁Monitor	-5238
▁Offense	-5239
▁Players	-5240
▁Rosario	-5241
▁SUBJECT	-5242
▁TUITION	-5243
▁UNIFAST	-5244
▁WELFARE	-5245
▁Welfare	-5246
▁Writing	-5247
▁ability	-5248
▁absence	-5249
▁adopted	-5250
▁agricul	-5251
▁assumed	-5252
▁awarded	-5253
▁brought	-5254
▁canteen	-5255
▁changed	-5256
▁charged	-5257
▁checked	-5258
▁conform	-5259
▁consequ	-5260
▁control	-5261
▁current	-5262
▁custody	-5263
▁damaged	-5264
▁donated	-5265
▁dynamic	-5266
▁edifice	-5267
▁efforts	-5268
▁employs	-5269
▁execute	-5270
▁facilit	-5271
▁finance	-5272
▁folders	-5273
▁foreign	-5274
▁gadgets	-5275
▁greater	-5276
▁healthy	-5277
▁honesty	-5278
▁however	-5279
▁immoral	-5280
▁inaugur	-5281
▁journey	-5282
▁justice	-5283
▁letters	-5284
▁located	-5285
▁natural	-5286
▁numbers	-5287
▁ongoing	-5288
▁overall	-5289
▁partial	-5290
▁produce	-5291
▁putting	-5292
▁quickly	-5293
▁reading	-5294
▁refrain	-5295
▁replace	-5296
▁satisfy	-5297
▁schools	-5298
▁science	-5299
▁serving	-5300
▁stipend	-5301
▁thereon	-5302
▁towards	-5303
▁trainee	-5304
▁transcr	-5305
▁vacated	-5306
▁various	-5307
▁warrant	-5308
Committee	-5309
Education	-5310
PLICATION	-5311
URRICULUM	-5312
available	-5313
committee	-5314
community	-5315
documents	-5316
ductivity	-5317
education	-5318
employees	-5319
enditures	-5320
including	-5321
nographic	-5322
notarized	-5323
positions	-5324
represent	-5325
rievances	-5326
▁Agencies	-5327
▁Clerical	-5328
▁Crisiolo	-5329
▁Division	-5330
▁Langamen	-5331
▁Mechanic	-5332
▁OWNERHIP	-5333
▁Original	-5334
▁Physical	-5335
▁Pictures	-5336
▁Previous	-5337
▁Programs	-5338
▁TRANSFER	-5339
▁Universi	-5340
▁accepted	-5341
▁athletic	-5342
▁attorney	-5343
▁carrying	-5344
▁complied	-5345
▁concerns	-5346
▁creative	-5347
▁declared	-5348
▁downturn	-5349
▁economic	-5350
▁educator	-5351
▁entering	-5352
▁entitled	-5353
▁excluded	-5354
▁families	-5355
▁forensic	-5356
▁identify	-5357
▁included	-5358
▁journals	-5359
▁laughter	-5360
▁medicine	-5361
▁moderate	-5362
▁monitors	-5363
▁pressing	-5364
▁resource	-5365
▁revision	-5366
▁screened	-5367
▁securing	-5368
▁solution	-5369
▁standing	-5370
▁steadily	-5371
▁symposia	-5372
▁uniforms	-5373
▁updating	-5374
▁welcomes	-5375
▁workshop	-5376
PHILOSOPHY	-5377
aphernalia	-5378
assemblies	-5379
assessment	-5380
department	-5381
employment	-5382
graduation	-5383
ownloading	-5384
performing	-5385
respectful	-5386
▁AUTHORITY	-5387
▁EDUCATION	-5388
▁Establish	-5389
▁Ownership	-5390
▁Practicum	-5391
▁RETENTION	-5392
▁SELECTION	-5393
▁Spearhead	-5394
▁TECHNICAL	-5395
▁Tailoring	-5396
▁Universal	-5397
▁approving	-5398
▁assurance	-5399
▁attending	-5400
▁broadcast	-5401
▁component	-5402
▁conducive	-5403
▁connected	-5404
▁converted	-5405
▁decisions	-5406
▁depending	-5407
▁exclusion	-5408
▁formation	-5409
▁forwarded	-5410
▁hardships	-5411
▁inability	-5412
▁issuances	-5413
▁logistics	-5414
▁malicious	-5415
▁mentioned	-5416
▁monitored	-5417
▁observing	-5418
▁offensive	-5419
▁overnight	-5420
▁photocopy	-5421
▁physician	-5422
▁piercings	-5423
▁popularly	-5424
▁practicum	-5425
▁preceding	-5426
▁prejudice	-5427
▁privilege	-5428
▁producing	-5429
▁residents	-5430
▁specified	-5431
▁stationed	-5432
▁tampering	-5433
▁unexcused	-5434
▁vandalism	-5435
▁violation	-5436
▁workforce	-5437
appropriate	-5438
regulations	-5439
▁AUTHORIZED	-5440
▁Activities	-5441
▁Additional	-5442
▁Councilors	-5443
▁Disrupting	-5444
▁EVALUATION	-5445
▁Electronic	-5446
▁Individual	-5447
▁PROCEDURES	-5448
▁REGISTERED	-5449
▁Violations	-5450
▁allocation	-5451
▁ascendancy	-5452
▁attendance	-5453
▁challenges	-5454
▁collective	-5455
▁conducting	-5456
▁disability	-5457
▁discretion	-5458
▁discussion	-5459
▁distribute	-5460
▁extinction	-5461
▁importance	-5462
▁meaningful	-5463
▁obligation	-5464
▁preference	-5465
▁reasonable	-5466
▁redemptive	-5467
▁represents	-5468
▁scholastic	-5469
▁statements	-5470
▁sufficient	-5471
▁transferee	-5472
▁volleyball	-5473
CONFIRMATION	-5474
disciplinary	-5475
implementing	-5476
registration	-5477
requirements	-5478
▁Alternative	-5479
▁Bookkeeping	-5480
▁Electricity	-5481
▁Secretarial	-5482
▁Stenography	-5483
▁accessories	-5484
▁acquisition	-5485
▁authorities	-5486
▁backgrounds	-5487
▁businessman	-5488
▁congressman	-5489
▁distributed	-5490
▁dynamically	-5491
▁inaugurated	-5492
▁instructors	-5493
▁instruments	-5494
▁investigate	-5495
▁maintaining	-5496
▁neighboring	-5497
▁possibility	-5498
▁proceedings	-5499
▁programming	-5500
▁transformed	-5501
▁voluntarily	-5502
accreditation	-5503
organizations	-5504
tracurricular	-5505
▁Construction	-5506
▁Intellectual	-5507
▁REGISTRATION	-5508
▁Registration	-5509
▁Universities	-5510
▁arrangements	-5511
▁commencement	-5512
▁competitions	-5513
▁compromising	-5514
▁disabilities	-5515
▁expenditures	-5516
▁improvements	-5517
▁instrumental	-5518
▁intimidating	-5519
▁investigates	-5520
▁irrespective	-5521
▁modification	-5522
▁recreational	-5523
▁unauthorized	-5524
▁verification	-5525
qualifications	-5526
▁Organizations	-5527
▁Participation	-5528
▁Undergraduate	-5529
▁automatically	-5530
▁consideration	-5531
▁disrespectful	-5532
▁instructional	-5533
▁participation	-5534
▁undergraduate	-5535
▁accountability	-5536
▁transformative	-5537
)-	-5538
//	-5539
AZ	-5540
Am	-5541
BB	-5542
BM	-5543
BO	-5544
CA	-5545
DP	-5546
EP	-5547
FO	-5548
Fi	-5549
GR	-5550
HI	-5551
HU	-5552
IA	-5553
Le	-5554
Li	-5555
MA	-5556
NG	-5557
Os	-5558
RI	-5559
RP	-5560
UA	-5561
UG	-5562
WS	-5563
XY	-5564
YS	-5565
_,	-5566
ah	-5567
ea	-5568
fr	-5569
gu	-5570
ps	-5571
ra	-5572
sy	-5573
tt	-5574
wa	-5575
wd	-5576
ze	-5577
’/	-5578
▁"	-5579
▁[	-5580
://	-5581
ACH	-5582
ACY	-5583
ADC	-5584
ANG	-5585
ARY	-5586
ATI	-5587
App	-5588
BOT	-5589
CIP	-5590
CLU	-5591
CMO	-5592
COS	-5593
CPE	-5594
CTV	-5595
CUL	-5596
DRA	-5597
Dep	-5598
EAV	-5599
EDP	-5600
EIP	-5601
ETH	-5602
FES	-5603
FFA	-5604
FRA	-5605
GET	-5606
GSO	-5607
GWA	-5608
ICS	-5609
IDA	-5610
IDE	-5611
IEF	-5612
IEV	-5613
INA	-5614
INC	-5615
INE	-5616
INO	-5617
IRS	-5618
ISA	-5619
IST	-5620
ITE	-5621
Job	-5622
KRA	-5623
LAY	-5624
LGU	-5625
LIP	-5626
Law	-5627
MIS	-5628
MOK	-5629
NAL	-5630
NCC	-5631
NEW	-5632
NUM	-5633
OLS	-5634
ONZ	-5635
OPP	-5636
PBB	-5637
PRC	-5638
PRO	-5639
PUL	-5640
PUT	-5641
Per	-5642
REL	-5643
REM	-5644
RIO	-5645
RIS	-5646
RUC	-5647
Rel	-5648
Rem	-5649
SAO	-5650
SCH	-5651
SEF	-5652
SIL	-5653
SSC	-5654
SST	-5655
SUR	-5656
Sup	-5657
TEE	-5658
THE	-5659
TLY	-5660
TRY	-5661
UID	-5662
VET	-5663
VOC	-5664
Ver	-5665
WAL	-5666
YYY	-5667
abr	-5668
acc	-5669
add	-5670
aid	-5671
als	-5672
ams	-5673
anu	-5674
ark	-5675
bec	-5676
bre	-5677
chr	-5678
cur	-5679
eav	-5680
emi	-5681
enu	-5682
ero	-5683
fac	-5684
had	-5685
hic	-5686
iec	-5687
ili	-5688
imp	-5689
iry	-5690
isl	-5691
ium	-5692
jur	-5693
ket	-5694
lee	-5695
lem	-5696
lev	-5697
mod	-5698
oes	-5699
oin	-5700
onz	-5701
ool	-5702
ope	-5703
ott	-5704
ram	-5705
rmo	-5706
sol	-5707
sue	-5708
tab	-5709
try	-5710
two	-5711
ubs	-5712
uch	-5713
ulg	-5714
uls	-5715
uty	-5716
vac	-5717
who	-5718
▁AG	-5719
▁Ag	-5720
▁Do	-5721
▁Du	-5722
▁FB	-5723
▁FR	-5724
▁HO	-5725
▁Id	-5726
▁Ii	-5727
▁Il	-5728
▁JO	-5729
▁JR	-5730
▁LI	-5731
▁Mu	-5732
▁QU	-5733
▁SB	-5734
▁SO	-5735
▁TE	-5736
▁We	-5737
▁Wh	-5738
▁Wi	-5739
▁ic	-5740
▁je	-5741
▁mo	-5742
▁pe	-5743
▁sk	-5744
▁ve	-5745
ABLE	-5746
ACIL	-5747
ACUA	-5748
ALES	-5749
ALLY	-5750
AMIN	-5751
ANDO	-5752
ANKS	-5753
ATED	-5754
ATES	-5755
ATIS	-5756
ATOR	-5757
Amer	-5758
BALL	-5759
BEED	-5760
BSED	-5761
CIPL	-5762
CMOs	-5763
COMM	-5764
CRET	-5765
CRIM	-5766
CWTS	-5767
Cred	-5768
Data	-5769
ELIN	-5770
FERF	-5771
FOUR	-5772
GRAD	-5773
HRMO	-5774
Home	-5775
ICTR	-5776
IPLO	-5777
ISCO	-5778
KRAs	-5779
Laws	-5780
List	-5781
NNNN	-5782
NSTP	-5783
OSAL	-5784
Oral	-5785
PONS	-5786
PORT	-5787
RATA	-5788
REAK	-5789
RIED	-5790
RPMS	-5791
RUIT	-5792
SIST	-5793
SPEC	-5794
STEP	-5795
TINU	-5796
TIRE	-5797
TORY	-5798
TRAR	-5799
They	-5800
Unif	-5801
VOID	-5802
VPAA	-5803
Very	-5804
When	-5805
YEAR	-5806
YING	-5807
ably	-5808
ahan	-5809
ails	-5810
alam	-5811
ales	-5812
alse	-5813
amer	-5814
anks	-5815
arms	-5816
asiz	-5817
atab	-5818
avig	-5819
avit	-5820
call	-5821
cove	-5822
disc	-5823
dmin	-5824
each	-5825
eint	-5826
elig	-5827
elry	-5828
enda	-5829
epen	-5830
erit	-5831
fees	-5832
ffid	-5833
file	-5834
free	-5835
furn	-5836
gins	-5837
glig	-5838
goti	-5839
greg	-5840
grie	-5841
heme	-5842
hers	-5843
iais	-5844
iana	-5845
ible	-5846
ican	-5847
iche	-5848
igor	-5849
ilig	-5850
imin	-5851
irit	-5852
isco	-5853
isks	-5854
itin	-5855
ixed	-5856
king	-5857
lect	-5858
lees	-5859
lick	-5860
lien	-5861
meet	-5862
mess	-5863
mote	-5864
nest	-5865
noon	-5866
odes	-5867
ogle	-5868
oice	-5869
onde	-5870
onge	-5871
onts	-5872
onus	-5873
open	-5874
orch	-5875
orig	-5876
osti	-5877
otes	-5878
ouse	-5879
paid	-5880
plan	-5881
post	-5882
pret	-5883
race	-5884
reed	-5885
rele	-5886
repe	-5887
repr	-5888
requ	-5889
rief	-5890
rive	-5891
sanc	-5892
secu	-5893
sign	-5894
supp	-5895
swer	-5896
tali	-5897
tero	-5898
tesy	-5899
than	-5900
then	-5901
thqu	-5902
tims	-5903
tram	-5904
unac	-5905
unct	-5906
unex	-5907
unks	-5908
ured	-5909
urel	-5910
vent	-5911
wait	-5912
when	-5913
your	-5914
ypef	-5915
ysts	-5916
zzes	-5917
▁ALL	-5918
▁APA	-5919
▁Acc	-5920
▁BAR	-5921
▁BUD	-5922
▁Bid	-5923
▁CAL	-5924
▁COS	-5925
▁Cor	-5926
▁Cyc	-5927
▁DBM	-5928
▁DPA	-5929
▁DRP	-5930
▁Due	-5931
▁Dup	-5932
▁ETH	-5933
▁Enc	-5934
▁Enh	-5935
▁Fam	-5936
▁Fea	-5937
▁HIS	-5938
▁HRD	-5939
▁ICT	-5940
▁III	-5941
▁IMM	-5942
▁Key	-5943
▁Law	-5944
▁Lec	-5945
▁MPA	-5946
▁Mee	-5947
▁Mid	-5948
▁Mor	-5949
▁Not	-5950
▁PER	-5951
▁Pat	-5952
▁Psy	-5953
▁Pub	-5954
▁REG	-5955
▁Rev	-5956
▁SUP	-5957
▁SUS	-5958
▁TOR	-5959
▁Tap	-5960
▁Top	-5961
▁Tow	-5962
▁VIC	-5963
▁ask	-5964
▁bin	-5965
▁cas	-5966
▁com	-5967
▁cri	-5968
▁cum	-5969
▁det	-5970
▁far	-5971
▁fri	-5972
▁gap	-5973
▁har	-5974
▁imp	-5975
▁jew	-5976
▁job	-5977
▁led	-5978
▁lif	-5979
▁nur	-5980
▁pat	-5981
▁rip	-5982
▁rot	-5983
▁run	-5984
▁see	-5985
▁sit	-5986
▁tax	-5987
▁tie	-5988
▁tre	-5989
▁vic	-5990
▁vul	-5991
▁win	-5992
AZING	-5993
BRIEF	-5994
BURSE	-5995
Bohol	-5996
Class	-5997
DepEd	-5998
EAVES	-5999
ECTIV	-6000
ENDAR	-6001
ERSON	-6002
ETHOD	-6003
Enrol	-6004
First	-6005
GANIZ	-6006
Heads	-6007
ISTRA	-6008
IVACY	-6009
LOWED	-6010
Major	-6011
OVERN	-6012
Offic	-6013
PORTS	-6014
RESID	-6015
Requi	-6016
SEMIN	-6017
STAND	-6018
TECHN	-6019
TROLS	-6020
TURAL	-6021
ULING	-6022
URITY	-6023
acing	-6024
advis	-6025
airly	-6026
ample	-6027
andom	-6028
anger	-6029
anied	-6030
areer	-6031
aught	-6032
brevi	-6033
chase	-6034
chron	-6035
class	-6036
crime	-6037
drawn	-6038
earhe	-6039
eeper	-6040
emble	-6041
eneur	-6042
ening	-6043
erved	-6044
every	-6045
ework	-6046
feter	-6047
ffici	-6048
gener	-6049
grave	-6050
icals	-6051
ident	-6052
ieces	-6053
iftee	-6054
iving	-6055
known	-6056
level	-6057
lical	-6058
luent	-6059
matic	-6060
oblig	-6061
ocacy	-6062
oided	-6063
opies	-6064
orage	-6065
oried	-6066
ormit	-6067
ottom	-6068
owers	-6069
pects	-6070
ponso	-6071
quiry	-6072
renti	-6073
rusts	-6074
sched	-6075
sides	-6076
sight	-6077
spons	-6078
sured	-6079
ticed	-6080
times	-6081
title	-6082
uates	-6083
ulted	-6084
under	-6085
utory	-6086
vices	-6087
vided	-6088
vises	-6089
while	-6090
whose	-6091
▁AFFA	-6092
▁BEEd	-6093
▁BSEd	-6094
▁BSIT	-6095
▁BSOA	-6096
▁Bene	-6097
▁Best	-6098
▁Both	-6099
▁CASE	-6100
▁CCTV	-6101
▁COLL	-6102
▁COMM	-6103
▁Case	-6104
▁Cent	-6105
▁Core	-6106
▁DOST	-6107
▁Drop	-6108
▁ERIO	-6109
▁Educ	-6110
▁Even	-6111
▁FERN	-6112
▁FROM	-6113
▁Five	-6114
▁Font	-6115
▁GONZ	-6116
▁GUID	-6117
▁Goal	-6118
▁Gonz	-6119
▁Hair	-6120
▁Hosp	-6121
▁Janu	-6122
▁July	-6123
▁Mode	-6124
▁NGOs	-6125
▁NOON	-6126
▁Numb	-6127
▁OPER	-6128
▁Pair	-6129
▁Pays	-6130
▁ROTC	-6131
▁Risk	-6132
▁SMAW	-6133
▁SMOK	-6134
▁SSEF	-6135
▁SUCH	-6136
▁Semi	-6137
▁Slip	-6138
▁THAT	-6139
▁TVET	-6140
▁Thus	-6141
▁Time	-6142
▁Trad	-6143
▁Turn	-6144
▁VPAA	-6145
▁WITH	-6146
▁YYYY	-6147
▁Your	-6148
▁body	-6149
▁call	-6150
▁came	-6151
▁cent	-6152
▁chas	-6153
▁come	-6154
▁cost	-6155
▁cove	-6156
▁degr	-6157
▁duck	-6158
▁duty	-6159
▁earn	-6160
▁elev	-6161
▁emer	-6162
▁emph	-6163
▁even	-6164
▁exit	-6165
▁fabr	-6166
▁feel	-6167
▁find	-6168
▁font	-6169
▁fram	-6170
▁genu	-6171
▁give	-6172
▁hard	-6173
▁hear	-6174
▁hrmo	-6175
▁inch	-6176
▁join	-6177
▁keep	-6178
▁kind	-6179
▁late	-6180
▁left	-6181
▁lewd	-6182
▁loss	-6183
▁lost	-6184
▁loud	-6185
▁nine	-6186
▁occa	-6187
▁phen	-6188
▁plat	-6189
▁plus	-6190
▁rall	-6191
▁rate	-6192
▁reli	-6193
▁remo	-6194
▁reti	-6195
▁reve	-6196
▁sale	-6197
▁sent	-6198
▁sets	-6199
▁soon	-6200
▁susp	-6201
▁talk	-6202
▁tank	-6203
▁text	-6204
▁tour	-6205
▁type	-6206
▁uplo	-6207
▁user	-6208
▁view	-6209
▁void	-6210
▁vote	-6211
▁wast	-6212
▁worn	-6213
ACHING	-6214
AINING	-6215
Applic	-6216
Associ	-6217
DRAWAL	-6218
ELINES	-6219
Failed	-6220
IPLOMA	-6221
ISCRET	-6222
Nature	-6223
OPPING	-6224
RETURN	-6225
RICTLY	-6226
Return	-6227
SIONAL	-6228
Salary	-6229
Second	-6230
TERNAL	-6231
accomp	-6232
accord	-6233
acking	-6234
ahanan	-6235
alysts	-6236
ameras	-6237
ancell	-6238
ancier	-6239
annual	-6240
ansfer	-6241
applic	-6242
arging	-6243
aviors	-6244
cholog	-6245
counts	-6246
credib	-6247
dental	-6248
determ	-6249
ducted	-6250
during	-6251
eavors	-6252
encies	-6253
ertify	-6254
etween	-6255
ewable	-6256
gender	-6257
growth	-6258
hicles	-6259
iaison	-6260
inally	-6261
iniana	-6262
inking	-6263
inside	-6264
ipting	-6265
iption	-6266
ishers	-6267
issued	-6268
leevel	-6269
letter	-6270
lights	-6271
listed	-6272
loaded	-6273
manent	-6274
member	-6275
necess	-6276
orship	-6277
ostile	-6278
others	-6279
policy	-6280
posals	-6281
pports	-6282
public	-6283
reases	-6284
resear	-6285
series	-6286
servic	-6287
sights	-6288
social	-6289
spaced	-6290
status	-6291
system	-6292
ticize	-6293
ticles	-6294
tinued	-6295
torily	-6296
ulsory	-6297
▁ADMIN	-6298
▁ASSUR	-6299
▁Admin	-6300
▁Advis	-6301
▁Affid	-6302
▁Agree	-6303
▁Allow	-6304
▁Appro	-6305
▁Areas	-6306
▁Avail	-6307
▁Avoid	-6308
▁Await	-6309
▁Basis	-6310
▁Bonus	-6311
▁Bring	-6312
▁Civil	-6313
▁Deduc	-6314
▁Defam	-6315
▁Distr	-6316
▁ENTRY	-6317
▁EXCLU	-6318
▁EXPUL	-6319
▁Early	-6320
▁FACIL	-6321
▁FRANC	-6322
▁Falsi	-6323
▁Forms	-6324
▁Franc	-6325
▁GRIEV	-6326
▁Gener	-6327
▁Goods	-6328
▁Group	-6329
▁Guard	-6330
▁HOURS	-6331
▁Indic	-6332
▁Issue	-6333
▁Items	-6334
▁LOGIS	-6335
▁Longe	-6336
▁MACUA	-6337
▁Major	-6338
▁March	-6339
▁Mixed	-6340
▁Modes	-6341
▁Ordin	-6342
▁PROMO	-6343
▁PROXY	-6344
▁Party	-6345
▁Plain	-6346
▁RANKS	-6347
▁Ranks	-6348
▁Repro	-6349
▁Right	-6350
▁Rural	-6351
▁SCHED	-6352
▁SEPAR	-6353
▁Scale	-6354
▁Scope	-6355
▁Serve	-6356
▁Shall	-6357
▁Small	-6358
▁Sound	-6359
▁State	-6360
▁TIMES	-6361
▁Times	-6362
▁Title	-6363
▁Trian	-6364
▁Trust	-6365
▁UNITS	-6366
▁Units	-6367
▁Using	-6368
▁White	-6369
▁Years	-6370
▁aband	-6371
▁abide	-6372
▁acqui	-6373
▁acted	-6374
▁amend	-6375
▁backs	-6376
▁bound	-6377
▁break	-6378
▁brown	-6379
▁calam	-6380
▁cards	-6381
▁chair	-6382
▁cited	-6383
▁claim	-6384
▁close	-6385
▁cloud	-6386
▁comes	-6387
▁cumul	-6388
▁datab	-6389
▁dealt	-6390
▁debts	-6391
▁dilig	-6392
▁dimin	-6393
▁enter	-6394
▁entry	-6395
▁execu	-6396
▁exits	-6397
▁exten	-6398
▁fails	-6399
▁false	-6400
▁fixed	-6401
▁forfe	-6402
▁games	-6403
▁goals	-6404
▁goods	-6405
▁guest	-6406
▁guide	-6407
▁hairc	-6408
▁incur	-6409
▁infer	-6410
▁injur	-6411
▁items	-6412
▁jeans	-6413
▁later	-6414
▁leads	-6415
▁licen	-6416
▁login	-6417
▁merit	-6418
▁money	-6419
▁navig	-6420
▁norms	-6421
▁numer	-6422
▁occur	-6423
▁ordin	-6424
▁plain	-6425
▁point	-6426
▁popul	-6427
▁poses	-6428
▁posts	-6429
▁pride	-6430
▁proxy	-6431
▁quasi	-6432
▁raise	-6433
▁ranks	-6434
▁rated	-6435
▁reach	-6436
▁repos	-6437
▁rigor	-6438
▁risks	-6439
▁rooms	-6440
▁safek	-6441
▁score	-6442
▁shift	-6443
▁shoes	-6444
▁sides	-6445
▁signs	-6446
▁slips	-6447
▁small	-6448
▁stops	-6449
▁struc	-6450
▁tends	-6451
▁timel	-6452
▁title	-6453
▁trend	-6454
▁trial	-6455
▁twice	-6456
▁typef	-6457
▁until	-6458
▁usual	-6459
▁vault	-6460
▁wants	-6461
▁white	-6462
▁works	-6463
▁write	-6464
CIPLINE	-6465
CONTINU	-6466
Canteen	-6467
EIPTING	-6468
FACULTY	-6469
ICTRHEI	-6470
PENALTY	-6471
PENSION	-6472
Philipp	-6473
RELATED	-6474
RUCTION	-6475
Related	-6476
Service	-6477
Supreme	-6478
UREMENT	-6479
Unifast	-6480
against	-6481
another	-6482
ategory	-6483
aulting	-6484
authors	-6485
centers	-6486
ceptual	-6487
cessive	-6488
consecu	-6489
covered	-6490
descrip	-6491
dignity	-6492
disturb	-6493
efinite	-6494
endship	-6495
eration	-6496
etitive	-6497
feteria	-6498
ficence	-6499
fiction	-6500
grieved	-6501
holding	-6502
iberate	-6503
ibution	-6504
ichever	-6505
idation	-6506
idterms	-6507
ificant	-6508
inating	-6509
inology	-6510
iration	-6511
iritual	-6512
isition	-6513
itering	-6514
ketball	-6515
library	-6516
monious	-6517
natural	-6518
nerable	-6519
nessing	-6520
notices	-6521
offered	-6522
officio	-6523
omplete	-6524
passing	-6525
payment	-6526
pulsion	-6527
reading	-6528
renewal	-6529
rentice	-6530
repancy	-6531
replace	-6532
rounded	-6533
selling	-6534
sequent	-6535
session	-6536
sponsor	-6537
support	-6538
thereof	-6539
thquake	-6540
umulate	-6541
unction	-6542
urround	-6543
usually	-6544
without	-6545
written	-6546
▁ASSIST	-6547
▁Absent	-6548
▁Accred	-6549
▁Active	-6550
▁Antero	-6551
▁Attach	-6552
▁BSCRIM	-6553
▁BSCrim	-6554
▁BUDGET	-6555
▁Bridge	-6556
▁Center	-6557
▁Change	-6558
▁Clinic	-6559
▁Comply	-6560
▁Cooper	-6561
▁Corpor	-6562
▁Deputy	-6563
▁During	-6564
▁Duties	-6565
▁ETHICS	-6566
▁Either	-6567
▁Eligib	-6568
▁Ensure	-6569
▁Failed	-6570
▁Fairly	-6571
▁Family	-6572
▁Forged	-6573
▁HONORS	-6574
▁Identi	-6575
▁Impact	-6576
▁Intram	-6577
▁Issues	-6578
▁LEAVES	-6579
▁Laurel	-6580
▁Leaves	-6581
▁Lounge	-6582
▁METHOD	-6583
▁Mutual	-6584
▁OUTPUT	-6585
▁Orders	-6586
▁PRESID	-6587
▁PROFES	-6588
▁PROPER	-6589
▁PUBLIC	-6590
▁Patent	-6591
▁Permit	-6592
▁Pursue	-6593
▁RETIRE	-6594
▁RETURN	-6595
▁Recogn	-6596
▁Reform	-6597
▁Resign	-6598
▁Respon	-6599
▁Retali	-6600
▁SAFETY	-6601
▁SPORTS	-6602
▁STATIS	-6603
▁Segreg	-6604
▁Senate	-6605
▁Should	-6606
▁Single	-6607
▁Slogan	-6608
▁Statis	-6609
▁Supple	-6610
▁Theore	-6611
▁Travel	-6612
▁Unused	-6613
▁Update	-6614
▁VISION	-6615
▁Voided	-6616
▁accent	-6617
▁active	-6618
▁adhere	-6619
▁adopts	-6620
▁alumni	-6621
▁answer	-6622
▁anyone	-6623
▁arises	-6624
▁assent	-6625
▁attach	-6626
▁attrac	-6627
▁awards	-6628
▁backed	-6629
▁behind	-6630
▁bidder	-6631
▁blocks	-6632
▁blonde	-6633
▁blouse	-6634
▁bottom	-6635
▁career	-6636
▁casual	-6637
▁charge	-6638
▁choose	-6639
▁client	-6640
▁clinic	-6641
▁coding	-6642
▁colors	-6643
▁confer	-6644
▁conven	-6645
▁decent	-6646
▁denial	-6647
▁double	-6648
▁drills	-6649
▁effici	-6650
▁effort	-6651
▁entire	-6652
▁ethics	-6653
▁explan	-6654
▁failed	-6655
▁filled	-6656
▁finals	-6657
▁flames	-6658
▁flunks	-6659
▁forums	-6660
▁future	-6661
▁guilty	-6662
▁having	-6663
▁hazing	-6664
▁hunger	-6665
▁inelig	-6666
▁inform	-6667
▁intent	-6668
▁invite	-6669
▁itself	-6670
▁latest	-6671
▁ledger	-6672
▁levels	-6673
▁lounge	-6674
▁making	-6675
▁master	-6676
▁myself	-6677
▁nature	-6678
▁neglig	-6679
▁negoti	-6680
▁notice	-6681
▁object	-6682
▁obtain	-6683
▁passer	-6684
▁pieces	-6685
▁pursue	-6686
▁random	-6687
▁recurr	-6688
▁rental	-6689
▁replen	-6690
▁resign	-6691
▁retain	-6692
▁retake	-6693
▁retire	-6694
▁ripped	-6695
▁routed	-6696
▁scheme	-6697
▁serves	-6698
▁slogan	-6699
▁solely	-6700
▁sought	-6701
▁sponso	-6702
▁strand	-6703
▁subver	-6704
▁tables	-6705
▁tagged	-6706
▁taught	-6707
▁timely	-6708
▁travel	-6709
▁unpaid	-6710
▁unused	-6711
▁varied	-6712
▁visual	-6713
▁wishes	-6714
▁wreath	-6715
American	-6716
Barangay	-6717
Chairman	-6718
Children	-6719
FORMANCE	-6720
Incident	-6721
Likewise	-6722
RESEARCH	-6723
RUITMENT	-6724
STANDING	-6725
STUDENTS	-6726
Specific	-6727
Withdraw	-6728
activity	-6729
admitted	-6730
ancement	-6731
assisted	-6732
ationale	-6733
boarding	-6734
centered	-6735
certific	-6736
chronous	-6737
communic	-6738
computer	-6739
contribu	-6740
credited	-6741
cultural	-6742
ependent	-6743
ificance	-6744
islative	-6745
isterous	-6746
multiple	-6747
ointment	-6748
ological	-6749
opportun	-6750
original	-6751
provided	-6752
released	-6753
repeated	-6754
research	-6755
reviewed	-6756
rimarily	-6757
sanctity	-6758
services	-6759
specific	-6760
strained	-6761
strictly	-6762
tigating	-6763
together	-6764
uardians	-6765
ustodian	-6766
▁AFFAIRS	-6767
▁ALLOWED	-6768
▁Achieve	-6769
▁Against	-6770
▁Average	-6771
▁Bidding	-6772
▁COURSES	-6773
▁Canteen	-6774
▁Captain	-6775
▁Central	-6776
▁Ceremon	-6777
▁Charter	-6778
▁Consent	-6779
▁Culture	-6780
▁DIPLOMA	-6781
▁Decorum	-6782
▁Earnest	-6783
▁Edition	-6784
▁Entitle	-6785
▁Evening	-6786
▁Example	-6787
▁FUNDING	-6788
▁Fridays	-6789
▁GRADING	-6790
▁HISTORY	-6791
▁IMMORAL	-6792
▁Illegal	-6793
▁January	-6794
▁Journal	-6795
▁Lecture	-6796
▁Lending	-6797
▁MARRIED	-6798
▁Margins	-6799
▁Married	-6800
▁Meeting	-6801
▁Mondays	-6802
▁Morning	-6803
▁Numbers	-6804
▁OFFICES	-6805
▁PAYROLL	-6806
▁PRIVACY	-6807
▁PROCESS	-6808
▁PROGRAM	-6809
▁Parking	-6810
▁Passing	-6811
▁Problem	-6812
▁Promote	-6813
▁Protect	-6814
▁Reading	-6815
▁Receipt	-6816
▁Release	-6817
▁Respect	-6818
▁SERVICE	-6819
▁SMOKING	-6820
▁Sharing	-6821
▁Shiftee	-6822
▁Sources	-6823
▁Spacing	-6824
▁Subject	-6825
▁Subsidy	-6826
▁Success	-6827
▁Surveys	-6828
▁Syllabi	-6829
▁Towards	-6830
▁UNIFORM	-6831
▁Unified	-6832
▁Varsity	-6833
▁Visitor	-6834
▁Without	-6835
▁achieve	-6836
▁adjunct	-6837
▁alcohol	-6838
▁altered	-6839
▁approve	-6840
▁aspects	-6841
▁assault	-6842
▁assists	-6843
▁assured	-6844
▁audited	-6845
▁bearing	-6846
▁bidding	-6847
▁binding	-6848
▁cameras	-6849
▁changes	-6850
▁charges	-6851
▁claimed	-6852
▁clearly	-6853
▁contain	-6854
▁content	-6855
▁contrac	-6856
▁convert	-6857
▁correct	-6858
▁covered	-6859
▁deposit	-6860
▁desires	-6861
▁devices	-6862
▁entrepr	-6863
▁excused	-6864
▁extingu	-6865
▁fiction	-6866
▁fosters	-6867
▁founded	-6868
▁genuine	-6869
▁handled	-6870
▁hostile	-6871
▁hundred	-6872
▁inquiry	-6873
▁invited	-6874
▁invoice	-6875
▁jewelry	-6876
▁lasting	-6877
▁monitor	-6878
▁monthly	-6879
▁partner	-6880
▁patents	-6881
▁patrons	-6882
▁players	-6883
▁prevail	-6884
▁printed	-6885
▁privacy	-6886
▁pursues	-6887
▁qualify	-6888
▁quizzes	-6889
▁rallies	-6890
▁ratings	-6891
▁receive	-6892
▁reflect	-6893
▁refusal	-6894
▁rehabil	-6895
▁renewal	-6896
▁repairs	-6897
▁revises	-6898
▁scandal	-6899
▁secured	-6900
▁seeking	-6901
▁shaking	-6902
▁sharing	-6903
▁showing	-6904
▁sitting	-6905
▁smoking	-6906
▁sources	-6907
▁speaker	-6908
▁spearhe	-6909
▁stating	-6910
▁stopped	-6911
▁storage	-6912
▁surveys	-6913
▁therein	-6914
▁thereof	-6915
▁trained	-6916
▁trainer	-6917
▁treated	-6918
▁violate	-6919
▁weapons	-6920
▁winning	-6921
Admission	-6922
BURSEMENT	-6923
Crediting	-6924
Enrollees	-6925
Generally	-6926
IFICATION	-6927
ISCRETHEI	-6928
ISTRATIVE	-6929
Promotion	-6930
Proposals	-6931
REGISTRAR	-6932
TECHNICAL	-6933
Technical	-6934
UNICATION	-6935
URRICULAR	-6936
acquiring	-6937
akeholder	-6938
borrowers	-6939
clusively	-6940
concerned	-6941
elections	-6942
eneurship	-6943
equipment	-6944
establish	-6945
exclusive	-6946
fessorial	-6947
financial	-6948
furniture	-6949
iberation	-6950
insurance	-6951
leeveless	-6952
municipal	-6953
necessary	-6954
onstrated	-6955
operation	-6956
organized	-6957
otherwise	-6958
practical	-6959
pretation	-6960
principle	-6961
reatening	-6962
recommend	-6963
rehensive	-6964
remaining	-6965
retention	-6966
scheduled	-6967
▁ABSENCES	-6968
▁Approved	-6969
▁Approves	-6970
▁Assembly	-6971
▁Athletic	-6972
▁Bringing	-6973
▁Bullying	-6974
▁Business	-6975
▁CALENDAR	-6976
▁CONTROLS	-6977
▁Capstone	-6978
▁Changing	-6979
▁Cheating	-6980
▁Congress	-6981
▁Consumer	-6982
▁Cyclical	-6983
▁DISSEMIN	-6984
▁Deadline	-6985
▁Decision	-6986
▁Evaluate	-6987
▁Expected	-6988
▁FERNANDO	-6989
▁Facebook	-6990
▁Facility	-6991
▁Firearms	-6992
▁Founding	-6993
▁Freshmen	-6994
▁GONZALES	-6995
▁Gambling	-6996
▁Generate	-6997
▁Gonzales	-6998
▁Guardian	-6999
▁Handling	-7000
▁Hospital	-7001
▁INTERNAL	-7002
▁ISSUANCE	-7003
▁Incoming	-7004
▁Monitors	-7005
▁Outgoing	-7006
▁Overtime	-7007
▁PROPOSAL	-7008
▁Payrolls	-7009
▁Payslips	-7010
▁Position	-7011
▁Practice	-7012
▁Presides	-7013
▁Province	-7014
▁Publicly	-7015
▁QUALIFIC	-7016
▁Relevant	-7017
▁SECURITY	-7018
▁STANDING	-7019
▁STRICTLY	-7020
▁Salaries	-7021
▁Seminars	-7022
▁Supports	-7023
▁Syllabus	-7024
▁TEACHING	-7025
▁TRAINING	-7026
▁Thematic	-7027
▁Timeline	-7028
▁Turnitin	-7029
▁Validate	-7030
▁Validity	-7031
▁Weighted	-7032
▁actively	-7033
▁addition	-7034
▁advocacy	-7035
▁affluent	-7036
▁articles	-7037
▁assemble	-7038
▁assisted	-7039
▁athletes	-7040
▁auditing	-7041
▁balances	-7042
▁believes	-7043
▁canteens	-7044
▁chastity	-7045
▁clothing	-7046
▁compiled	-7047
▁computed	-7048
▁conducts	-7049
▁conflict	-7050
▁consists	-7051
▁constitu	-7052
▁contrary	-7053
▁councils	-7054
▁covering	-7055
▁database	-7056
▁deadline	-7057
▁defended	-7058
▁diminish	-7059
▁dishonor	-7060
▁disorder	-7061
▁disputes	-7062
▁doctoral	-7063
▁drinking	-7064
▁dropping	-7065
▁duration	-7066
▁earrings	-7067
▁elevated	-7068
▁emphasiz	-7069
▁envelope	-7070
▁expelled	-7071
▁fairness	-7072
▁fighting	-7073
▁fixtures	-7074
▁graphics	-7075
▁grounded	-7076
▁identity	-7077
▁imposing	-7078
▁improper	-7079
▁industry	-7080
▁initiate	-7081
▁insights	-7082
▁integral	-7083
▁internet	-7084
▁involves	-7085
▁lawfully	-7086
▁learners	-7087
▁licensed	-7088
▁likewise	-7089
▁linkages	-7090
▁majority	-7091
▁mandates	-7092
▁maximize	-7093
▁midterms	-7094
▁minimize	-7095
▁navigate	-7096
▁occasion	-7097
▁offender	-7098
▁overages	-7099
▁parental	-7100
▁phenomen	-7101
▁presence	-7102
▁publicly	-7103
▁purchase	-7104
▁readings	-7105
▁realized	-7106
▁referred	-7107
▁relation	-7108
▁releases	-7109
▁reserved	-7110
▁reserves	-7111
▁resolves	-7112
▁retiring	-7113
▁rotation	-7114
▁separate	-7115
▁sexually	-7116
▁shifting	-7117
▁socially	-7118
▁stealing	-7119
▁stronger	-7120
▁supplier	-7121
▁syllabus	-7122
▁typeface	-7123
▁undertak	-7124
▁uploaded	-7125
▁valuable	-7126
▁vehicles	-7127
▁verified	-7128
▁verifies	-7129
▁violated	-7130
▁violence	-7131
ACCOUNTING	-7132
AMINATIONS	-7133
Applicants	-7134
COMMISSION	-7135
CONTINUING	-7136
Candidates	-7137
Continuing	-7138
Designated	-7139
Enrollment	-7140
Leadership	-7141
Listahanan	-7142
Philippine	-7143
REGISTERED	-7144
TRANSFEREE	-7145
VOCATIONAL	-7146
Vocational	-7147
authorship	-7148
chological	-7149
continuing	-7150
curricular	-7151
determined	-7152
discipline	-7153
discussion	-7154
generating	-7155
government	-7156
laboration	-7157
leadership	-7158
production	-7159
tabulation	-7160
themselves	-7161
violations	-7162
worthiness	-7163
▁ASSURANCE	-7164
▁Academics	-7165
▁Acknowled	-7166
▁Affidavit	-7167
▁Afternoon	-7168
▁Alignment	-7169
▁Athletics	-7170
▁Automatic	-7171
▁Available	-7172
▁Completed	-7173
▁Conducted	-7174
▁Copyright	-7175
▁Dismissed	-7176
▁Duplicate	-7177
▁ELECTIONS	-7178
▁EXCLUSION	-7179
▁EXPULSION	-7180
▁Excellent	-7181
▁FRANCISCO	-7182
▁FUNCTIONS	-7183
▁Francisco	-7184
▁GRIEVANCE	-7185
▁Graduates	-7186
▁Integrity	-7187
▁LOGISTICS	-7188
▁Littering	-7189
▁Longevity	-7190
▁Mechanism	-7191
▁Numbering	-7192
▁PROCEDURE	-7193
▁Permanent	-7194
▁Portfolio	-7195
▁Preferred	-7196
▁Processes	-7197
▁Proposals	-7198
▁Published	-7199
▁Qualified	-7200
▁Receiving	-7201
▁Reference	-7202
▁Releasing	-7203
▁Reprimand	-7204
▁Returnees	-7205
▁Returning	-7206
▁STANDARDS	-7207
▁Signature	-7208
▁Soundness	-7209
▁Statement	-7210
▁Tradition	-7211
▁Unclaimed	-7212
▁Withdrawn	-7213
▁abandoned	-7214
▁acquiring	-7215
▁affecting	-7216
▁aggrieved	-7217
▁amendment	-7218
▁assisting	-7219
▁behaviors	-7220
▁belonging	-7221
▁budgetary	-7222
▁cafeteria	-7223
▁catalysts	-7224
▁colleague	-7225
▁conflicts	-7226
▁consulted	-7227
▁continued	-7228
▁copyright	-7229
▁corrected	-7230
▁criticize	-7231
▁currently	-7232
▁deception	-7233
▁degrading	-7234
▁diligence	-7235
▁direction	-7236
▁dismissed	-7237
▁donations	-7238
▁efficient	-7239
▁electoral	-7240
▁encourage	-7241
▁equitable	-7242
▁equitably	-7243
▁ethically	-7244
▁evaluates	-7245
▁examinees	-7246
▁executory	-7247
▁exemplary	-7248
▁extensive	-7249
▁financier	-7250
▁framework	-7251
▁furnished	-7252
▁generally	-7253
▁gymnasium	-7254
▁increases	-7255
▁indicated	-7256
▁inspected	-7257
▁installed	-7258
▁intention	-7259
▁inventory	-7260
▁justified	-7261
▁librarian	-7262
▁locations	-7263
▁mentoring	-7264
▁newspaper	-7265
▁numerical	-7266
▁oversight	-7267
▁paragraph	-7268
▁permitted	-7269
▁platforms	-7270
▁practiced	-7271
▁pregnancy	-7272
▁principle	-7273
▁rationale	-7274
▁reachable	-7275
▁realizing	-7276
▁receiving	-7277
▁recipeint	-7278
▁relevance	-7279
▁residency	-7280
▁retaining	-7281
▁revealing	-7282
▁reviewing	-7283
▁revisions	-7284
▁separated	-7285
▁shortages	-7286
▁signatory	-7287
▁situation	-7288
▁spiritual	-7289
▁sponsored	-7290
▁statement	-7291
▁subjected	-7292
▁summaries	-7293
▁summonses	-7294
▁suppliers	-7295
▁suspended	-7296
▁whichever	-7297
▁withdraws	-7298
APPLICATION	-7299
Association	-7300
Chairperson	-7301
Examination	-7302
Sangguniang	-7303
ancellation	-7304
application	-7305
competition	-7306
consecutive	-7307
continuance	-7308
credentials	-7309
credibility	-7310
descriptive	-7311
educational	-7312
replacement	-7313
scholarship	-7314
supervision	-7315
urroundings	-7316
▁ASSISTANCE	-7317
▁Acceptance	-7318
▁Accumulate	-7319
▁Allowances	-7320
▁Auditorium	-7321
▁Bookkeeper	-7322
▁COLLECTION	-7323
▁CURRICULUM	-7324
▁Ceremonies	-7325
▁Collection	-7326
▁Complaints	-7327
▁Compulsory	-7328
▁Conference	-7329
▁Contribute	-7330
▁DISCIPLINE	-7331
▁Deductions	-7332
▁Earthquake	-7333
▁Employment	-7334
▁Excellence	-7335
▁FACILITIES	-7336
▁Facilities	-7337
▁Governance	-7338
▁Highlights	-7339
▁Incentives	-7340
▁Incomplete	-7341
▁Indicators	-7342
▁Interviews	-7343
▁Intramural	-7344
▁Laboratory	-7345
▁Membership	-7346
▁Misconduct	-7347
▁Nomination	-7348
▁OPERATIONS	-7349
▁Onboarding	-7350
▁Originally	-7351
▁PROMOTIONS	-7352
▁Prevention	-7353
▁Principles	-7354
▁RECEIPTING	-7355
▁RETIREMENT	-7356
▁Recognized	-7357
▁Represents	-7358
▁Revocation	-7359
▁SCHEDULING	-7360
▁SEPARATION	-7361
▁STATISTICS	-7362
▁Scholastic	-7363
▁Separation	-7364
▁Sequential	-7365
▁Successful	-7366
▁TECHNOLOGY	-7367
▁accomplish	-7368
▁adjustment	-7369
▁approaches	-7370
▁assignment	-7371
▁assistants	-7372
▁atmosphere	-7373
▁attracting	-7374
▁automotive	-7375
▁commission	-7376
▁conceptual	-7377
▁concerning	-7378
▁concurrent	-7379
▁conference	-7380
▁consisting	-7381
▁constitute	-7382
▁correction	-7383
▁corrective	-7384
▁cumulative	-7385
▁developing	-7386
▁discovered	-7387
▁dispatched	-7388
▁disturbing	-7389
▁documented	-7390
▁engagement	-7391
▁eventually	-7392
▁forfeiture	-7393
▁friendship	-7394
▁grievances	-7395
▁harmonious	-7396
▁increments	-7397
▁indefinite	-7398
▁ineligible	-7399
▁institutes	-7400
▁journalism	-7401
▁letterhead	-7402
▁negligence	-7403
▁newspapers	-7404
▁originally	-7405
▁performers	-7406
▁pertaining	-7407
▁plagiarism	-7408
▁possession	-7409
▁preventive	-7410
▁production	-7411
▁properties	-7412
▁protection	-7413
▁receipting	-7414
▁repository	-7415
▁rigorously	-7416
▁sequential	-7417
▁statistics	-7418
▁structural	-7419
▁subsequent	-7420
▁successful	-7421
▁suggestive	-7422
▁supervisor	-7423
▁technology	-7424
▁timeliness	-7425
▁undertones	-7426
▁vulnerable	-7427
▁withdrawal	-7428
▁witnessing	-7429
Incidentally	-7430
Requirements	-7431
certificates	-7432
computerized	-7433
coordination	-7434
fraternities	-7435
laboratories	-7436
publications	-7437
unaccredited	-7438
▁Accrediting	-7439
▁Appointment	-7440
▁Beneficence	-7441
▁Competitive	-7442
▁Conditional	-7443
▁Conferences	-7444
▁Cooperative	-7445
▁Corporation	-7446
▁Downloading	-7447
▁Educational	-7448
▁Eligibility	-7449
▁Enhancement	-7450
▁Feasibility	-7451
▁Filipiniana	-7452
▁INSTRUCTION	-7453
▁Integration	-7454
▁METHODOLOGY	-7455
▁Methodology	-7456
▁Nominations	-7457
▁OUTSTANDING	-7458
▁PERFORMANCE	-7459
▁PROCUREMENT	-7460
▁Preparation	-7461
▁Qualitative	-7462
▁RECRUITMENT	-7463
▁Recognition	-7464
▁Requisition	-7465
▁Resignation	-7466
▁Retaliation	-7467
▁SCHOLARSHIP	-7468
▁Segregation	-7469
▁Signatories	-7470
▁Stakeholder	-7471
▁Statistical	-7472
▁Theoretical	-7473
▁Transaction	-7474
▁Transcripts	-7475
▁Typewriting	-7476
▁Utilization	-7477
▁accompanied	-7478
▁advancement	-7479
▁assignments	-7480
▁chairperson	-7481
▁cleanliness	-7482
▁competition	-7483
▁competitive	-7484
▁considering	-7485
▁criminology	-7486
▁discrepancy	-7487
▁discussions	-7488
▁disturbance	-7489
▁emergencies	-7490
▁endorsement	-7491
▁established	-7492
▁exclusively	-7493
▁explanation	-7494
▁fabrication	-7495
▁formulating	-7496
▁independent	-7497
▁inferential	-7498
▁initiatives	-7499
▁inspections	-7500
▁integration	-7501
▁inventoried	-7502
▁liquidation	-7503
▁misbehavior	-7504
▁negotiation	-7505
▁nominations	-7506
▁operational	-7507
▁originating	-7508
▁participant	-7509
▁populations	-7510
▁qualitative	-7511
▁realignment	-7512
▁reliability	-7513
▁researchers	-7514
▁resignation	-7515
▁safekeeping	-7516
▁sensitivity	-7517
▁shortlisted	-7518
▁significant	-7519
▁spearheaded	-7520
▁specialized	-7521
▁stakeholder	-7522
▁transcripts	-7523
▁transparent	-7524
▁willingness	-7525
▁withholding	-7526
institutional	-7527
investigation	-7528
opportunities	-7529
▁Applications	-7530
▁Availability	-7531
▁Commencement	-7532
▁Compensation	-7533
▁DISBURSEMENT	-7534
▁Distribution	-7535
▁Entitlements	-7536
▁Experimental	-7537
▁Fraternities	-7538
▁PROFESSIONAL	-7539
▁Prerequisite	-7540
▁Presentation	-7541
▁Productivity	-7542
▁Quantitative	-7543
▁Reproduction	-7544
▁Scholarships	-7545
▁Significance	-7546
▁Supplemental	-7547
▁Trinidadnons	-7548
▁associations	-7549
▁broadcasting	-7550
▁certificates	-7551
▁complainants	-7552
▁consequently	-7553
▁consolidates	-7554
▁demonstrated	-7555
▁ethnographic	-7556
▁instructions	-7557
▁observations	-7558
▁presentation	-7559
▁productivity	-7560
▁professorial	-7561
▁quantitative	-7562
▁relationship	-7563
▁transparency	-7564
▁unrecognized	-7565
Administration	-7566
administrative	-7567
▁Authorization	-7568
▁COMMUNICATION	-7569
▁DISSEMINATION	-7570
▁Investigation	-7571
▁Psychological	-7572
▁Transcription	-7573
▁Triangulation	-7574
▁appropriately	-7575
▁appropriation	-7576
▁dependability	-7577
▁extinguishers	-7578
▁paraphernalia	-7579
▁relationships	-7580
▁replenishment	-7581
▁understanding	-7582
▁ADMINISTRATIVE	-7583
▁Accountability	-7584
▁Acknowledgment	-7585
▁CLASSIFICATION	-7586
▁Identification	-7587
▁Organizational	-7588
▁QUALIFICATIONS	-7589
▁Representation	-7590
▁administrators	-7591
▁appropriations	-7592
▁authentication	-7593
▁classification	-7594
▁confirmability	-7595
▁interpretation	-7596
▁organizational	-7597
▁rehabilitation	-7598
▁satisfactorily	-7599
▁transportation	-7600
▁Extracurricular	-7601
▁Trustworthiness	-7602
▁transferability	-7603
.;	-7604
AG	-7605
Ar	-7606
Au	-7607
BL	-7608
BY	-7609
DU	-7610
EO	-7611
EX	-7612
FF	-7613
GN	-7614
Gr	-7615
HS	-7616
If	-7617
Im	-7618
Is	-7619
LI	-7620
Lo	-7621
Ma	-7622
NI	-7623
OA	-7624
OO	-7625
Po	-7626
Qu	-7627
RD	-7628
SK	-7629
SS	-7630
SW	-7631
Sg	-7632
TC	-7633
Th	-7634
UÑ	-7635
YL	-7636
YN	-7637
au	-7638
bl	-7639
cs	-7640
eg	-7641
eu	-7642
fi	-7643
fl	-7644
gi	-7645
gs	-7646
hu	-7647
ij	-7648
ma	-7649
pm	-7650
rd	-7651
we	-7652
▁:	-7653
▁Z	-7654
▁i	-7655
▁z	-7656
▁”	-7657
ABC	-7658
ACR	-7659
ADA	-7660
ADD	-7661
ADS	-7662
ALA	-7663
ALI	-7664
AME	-7665
ANT	-7666
ARK	-7667
ARR	-7668
ASK	-7669
AVI	-7670
Abs	-7671
Add	-7672
Aff	-7673
Ann	-7674
Any	-7675
Art	-7676
Aud	-7677
Aux	-7678
BEL	-7679
BIE	-7680
BIL	-7681
BIT	-7682
BLY	-7683
BON	-7684
BOY	-7685
BSE	-7686
BUS	-7687
CEL	-7688
CIA	-7689
CIO	-7690
CRO	-7691
Chi	-7692
Cum	-7693
DES	-7694
DIN	-7695
Def	-7696
Det	-7697
Dis	-7698
Doc	-7699
EAP	-7700
ELD	-7701
ELO	-7702
ELY	-7703
ERC	-7704
ERF	-7705
EST	-7706
End	-7707
GOG	-7708
GOR	-7709
HIF	-7710
HIG	-7711
HON	-7712
IAL	-7713
IDO	-7714
IMP	-7715
IPS	-7716
IRD	-7717
IRR	-7718
ISH	-7719
ISM	-7720
Ind	-7721
KEN	-7722
LAN	-7723
LCR	-7724
LOA	-7725
LON	-7726
LTS	-7727
Los	-7728
MED	-7729
MID	-7730
MIT	-7731
MOA	-7732
Mar	-7733
Min	-7734
NDO	-7735
OND	-7736
OPY	-7737
Out	-7738
Pes	-7739
PhP	-7740
Pob	-7741
Pur	-7742
RES	-7743
RHU	-7744
RSA	-7745
Rec	-7746
Red	-7747
SES	-7748
SHS	-7749
SUP	-7750
SUS	-7751
SWD	-7752
Sgd	-7753
TAN	-7754
TIM	-7755
TON	-7756
TRO	-7757
TUS	-7758
Typ	-7759
UDY	-7760
UEL	-7761
UST	-7762
UÑA	-7763
VEN	-7764
XIM	-7765
YST	-7766
abe	-7767
acn	-7768
ady	-7769
ali	-7770
ana	-7771
ann	-7772
aps	-7773
ari	-7774
ask	-7775
asm	-7776
asy	-7777
att	-7778
aus	-7779
aut	-7780
blo	-7781
bor	-7782
boy	-7783
can	-7784
civ	-7785
col	-7786
com	-7787
cus	-7788
dam	-7789
dep	-7790
dor	-7791
ean	-7792
eck	-7793
eds	-7794
ele	-7795
elt	-7796
emn	-7797
emp	-7798
ert	-7799
eth	-7800
ett	-7801
evi	-7802
few	-7803
fur	-7804
get	-7805
gov	-7806
gra	-7807
het	-7808
him	-7809
htt	-7810
igr	-7811
iju	-7812
imm	-7813
inf	-7814
ken	-7815
kes	-7816
lac	-7817
lat	-7818
lla	-7819
loc	-7820
lse	-7821
lum	-7822
max	-7823
nce	-7824
new	-7825
nic	-7826
oan	-7827
ogr	-7828
oke	-7829
oks	-7830
omy	-7831
onc	-7832
owl	-7833
pdf	-7834
pho	-7835
phs	-7836
pin	-7837
pio	-7838
pit	-7839
ply	-7840
pru	-7841
pul	-7842
pun	-7843
pur	-7844
put	-7845
que	-7846
raf	-7847
rea	-7848
ref	-7849
rev	-7850
rib	-7851
ror	-7852
roy	-7853
ruc	-7854
sen	-7855
set	-7856
sim	-7857
sip	-7858
sty	-7859
tiz	-7860
tle	-7861
tmo	-7862
too	-7863
tra	-7864
ube	-7865
ugg	-7866
urp	-7867
utr	-7868
vec	-7869
way	-7870
wim	-7871
wit	-7872
www	-7873
xic	-7874
yeb	-7875
ysi	-7876
▁AP	-7877
▁AW	-7878
▁AY	-7879
▁Ab	-7880
▁CH	-7881
▁Cy	-7882
▁DU	-7883
▁EC	-7884
▁FS	-7885
▁IM	-7886
▁Iv	-7887
▁JD	-7888
▁KE	-7889
▁LA	-7890
▁NN	-7891
▁OP	-7892
▁Pr	-7893
▁SR	-7894
▁Tw	-7895
▁WH	-7896
▁ce	-7897
▁mu	-7898
▁ow	-7899
▁sl	-7900
▁sn	-7901
▁ty	-7902
▁ul	-7903
▁vI	-7904
ABOR	-7905
ADAS	-7906
ADLY	-7907
AGAN	-7908
AGRE	-7909
ALTH	-7910
AMBL	-7911
AMOR	-7912
ANCY	-7913
ANTE	-7914
ARDI	-7915
ARKS	-7916
ATEN	-7917
ATTY	-7918
ATUR	-7919
AVAL	-7920
AVER	-7921
AWAN	-7922
Adop	-7923
Anti	-7924
Aver	-7925
BANC	-7926
BEIs	-7927
BONA	-7928
BUSE	-7929
CENT	-7930
CEPT	-7931
CERN	-7932
COMP	-7933
CREP	-7934
CRIT	-7935
Chap	-7936
Comp	-7937
Cong	-7938
Cont	-7939
Coun	-7940
DAYS	-7941
DISA	-7942
DULE	-7943
Dear	-7944
ECTR	-7945
EDEN	-7946
ELIM	-7947
EMIS	-7948
EOUS	-7949
ERIA	-7950
ERTI	-7951
ESTI	-7952
ESTY	-7953
Ease	-7954
Elec	-7955
Exam	-7956
FENS	-7957
FROM	-7958
Fail	-7959
Frid	-7960
GUID	-7961
Good	-7962
Grad	-7963
HAVI	-7964
HEET	-7965
HEST	-7966
High	-7967
IANO	-7968
IBIL	-7969
INOS	-7970
IRST	-7971
ISID	-7972
ISTO	-7973
IVEN	-7974
IZES	-7975
LEAR	-7976
LETE	-7977
LOSA	-7978
Load	-7979
Loss	-7980
NDER	-7981
Name	-7982
OLAS	-7983
OLUT	-7984
ONIC	-7985
OOKS	-7986
ORMS	-7987
OSAS	-7988
PART	-7989
PEND	-7990
PROC	-7991
PROs	-7992
Pass	-7993
Posi	-7994
Prac	-7995
QUIP	-7996
QUIS	-7997
Qual	-7998
Quiz	-7999
REME	-8000
ROTC	-8001
ROUS	-8002
RULE	-8003
Room	-8004
SASO	-8005
SAUL	-8006
SCHE	-8007
SEMI	-8008
SEQU	-8009
SHIF	-8010
SOCI	-8011
Sign	-8012
Summ	-8013
TEND	-8014
TERM	-8015
TERS	-8016
Take	-8017
Term	-8018
Type	-8019
UGAL	-8020
ULTS	-8021
UMNI	-8022
USIN	-8023
Unit	-8024
Upon	-8025
VINO	-8026
WITH	-8027
XUAL	-8028
YSIC	-8029
___.	-8030
acks	-8031
adly	-8032
ague	-8033
aign	-8034
akes	-8035
alls	-8036
also	-8037
alyz	-8038
amph	-8039
anic	-8040
aria	-8041
arks	-8042
artf	-8043
aske	-8044
bare	-8045
bber	-8046
bear	-8047
blue	-8048
born	-8049
came	-8050
cene	-8051
chap	-8052
come	-8053
cons	-8054
cost	-8055
crit	-8056
date	-8057
does	-8058
duly	-8059
edal	-8060
edes	-8061
eech	-8062
emed	-8063
empt	-8064
enue	-8065
erog	-8066
ersh	-8067
esir	-8068
ests	-8069
ette	-8070
expl	-8071
face	-8072
fegu	-8073
fici	-8074
fold	-8075
fort	-8076
full	-8077
gery	-8078
gest	-8079
gion	-8080
giti	-8081
hanc	-8082
harm	-8083
have	-8084
http	-8085
husi	-8086
ibel	-8087
ices	-8088
icit	-8089
icon	-8090
idel	-8091
igan	-8092
imal	-8093
imsy	-8094
inee	-8095
inte	-8096
irts	-8097
irty	-8098
ised	-8099
ites	-8100
ivic	-8101
ivot	-8102
join	-8103
land	-8104
leas	-8105
leep	-8106
lief	-8107
ligh	-8108
list	-8109
make	-8110
mark	-8111
mate	-8112
mier	-8113
migr	-8114
mism	-8115
motu	-8116
much	-8117
mulg	-8118
nity	-8119
obie	-8120
ocal	-8121
ocio	-8122
ocks	-8123
oked	-8124
oles	-8125
olve	-8126
orms	-8127
osit	-8128
outs	-8129
pass	-8130
past	-8131
patr	-8132
pens	-8133
ppos	-8134
pred	-8135
pres	-8136
pris	-8137
rawl	-8138
rect	-8139
rend	-8140
rice	-8141
rich	-8142
riff	-8143
rium	-8144
ruel	-8145
rule	-8146
sale	-8147
same	-8148
seal	-8149
sees	-8150
sely	-8151
sets	-8152
shap	-8153
size	-8154
spir	-8155
stri	-8156
summ	-8157
team	-8158
thes	-8159
they	-8160
tiqu	-8161
tist	-8162
took	-8163
tree	-8164
trum	-8165
ttps	-8166
tuit	-8167
type	-8168
umor	-8169
unit	-8170
unre	-8171
uscr	-8172
user	-8173
vass	-8174
vate	-8175
veys	-8176
vice	-8177
vide	-8178
wide	-8179
work	-8180
▁ABO	-8181
▁ACT	-8182
▁BAL	-8183
▁BUL	-8184
▁CIR	-8185
▁CPA	-8186
▁CUL	-8187
▁DES	-8188
▁DIR	-8189
▁DUN	-8190
▁Dam	-8191
▁Des	-8192
▁EDP	-8193
▁EFF	-8194
▁ENR	-8195
▁ETC	-8196
▁Emb	-8197
▁Fax	-8198
▁Fed	-8199
▁Fit	-8200
▁GAR	-8201
▁HIN	-8202
▁Hon	-8203
▁ISA	-8204
▁IiI	-8205
▁Ill	-8206
▁LAW	-8207
▁LCR	-8208
▁LED	-8209
▁LET	-8210
▁LTS	-8211
▁Lab	-8212
▁Leg	-8213
▁MAE	-8214
▁MED	-8215
▁MEL	-8216
▁MIT	-8217
▁MOA	-8218
▁MOR	-8219
▁NON	-8220
▁OBS	-8221
▁Our	-8222
▁PEN	-8223
▁POL	-8224
▁PRC	-8225
▁PSA	-8226
▁PUN	-8227
▁Ple	-8228
▁Pos	-8229
▁RES	-8230
▁RHU	-8231
▁RSA	-8232
▁Ret	-8233
▁SAO	-8234
▁Sil	-8235
▁Six	-8236
▁TAB	-8237
▁TAK	-8238
▁TDP	-8239
▁TES	-8240
▁TRY	-8241
▁Tac	-8242
▁Tag	-8243
▁abu	-8244
▁air	-8245
▁ban	-8246
▁bar	-8247
▁bol	-8248
▁bon	-8249
▁bun	-8250
▁car	-8251
▁cur	-8252
▁dos	-8253
▁dre	-8254
▁emb	-8255
▁enc	-8256
▁eva	-8257
▁ext	-8258
▁fit	-8259
▁ges	-8260
▁get	-8261
▁glo	-8262
▁gos	-8263
▁had	-8264
▁hal	-8265
▁hon	-8266
▁hou	-8267
▁how	-8268
▁hur	-8269
▁ide	-8270
▁ign	-8271
▁lay	-8272
▁lec	-8273
▁lip	-8274
▁loy	-8275
▁mob	-8276
▁mor	-8277
▁pcs	-8278
▁pol	-8279
▁pot	-8280
▁pun	-8281
▁raw	-8282
▁red	-8283
▁scr	-8284
▁sil	-8285
▁sop	-8286
▁suc	-8287
▁syn	-8288
▁tat	-8289
▁tit	-8290
▁tum	-8291
▁tut	-8292
▁vII	-8293
▁ves	-8294
▁wai	-8295
▁wat	-8296
▁wed	-8297
ADJEC	-8298
AINST	-8299
ALISM	-8300
ANGAY	-8301
ARDED	-8302
AREAS	-8303
ASKET	-8304
Aside	-8305
Audio	-8306
BITED	-8307
BRARY	-8308
BREAK	-8309
BSEQU	-8310
Below	-8311
Block	-8312
Books	-8313
Brief	-8314
CAJES	-8315
CLASS	-8316
CROSS	-8317
Chief	-8318
Deans	-8319
Defin	-8320
ENITA	-8321
ENTER	-8322
ERVED	-8323
EnSci	-8324
FIRST	-8325
FRAIN	-8326
Final	-8327
GNANT	-8328
GUNDO	-8329
Group	-8330
HERYL	-8331
INGLE	-8332
INTEN	-8333
IRINO	-8334
ISAEL	-8335
ITTEE	-8336
Imboy	-8337
LEVEL	-8338
MISES	-8339
MODES	-8340
Magna	-8341
March	-8342
Minor	-8343
NEVER	-8344
NUMER	-8345
ODIAN	-8346
OLLED	-8347
OLLEY	-8348
ORDIN	-8349
Other	-8350
Panel	-8351
Pesos	-8352
Polic	-8353
Pursu	-8354
RISON	-8355
Reval	-8356
STEPS	-8357
Satur	-8358
Since	-8359
Summa	-8360
TABIL	-8361
TANIO	-8362
TEGOR	-8363
THIRD	-8364
TIALS	-8365
TIVAL	-8366
Their	-8367
There	-8368
These	-8369
Third	-8370
UATES	-8371
UNKEN	-8372
Units	-8373
VELYN	-8374
While	-8375
XIMUM	-8376
YSTEM	-8377
about	-8378
above	-8379
acqui	-8380
actor	-8381
adour	-8382
adrup	-8383
adver	-8384
aghet	-8385
aigns	-8386
aires	-8387
aless	-8388
allow	-8389
alyze	-8390
anged	-8391
angst	-8392
antee	-8393
arate	-8394
ariat	-8395
arred	-8396
astal	-8397
auton	-8398
avail	-8399
avity	-8400
bally	-8401
basis	-8402
bbery	-8403
below	-8404
benef	-8405
block	-8406
blogs	-8407
bohol	-8408
bound	-8409
carry	-8410
check	-8411
chers	-8412
choos	-8413
cious	-8414
citiz	-8415
civil	-8416
coach	-8417
compe	-8418
court	-8419
cribe	-8420
cuses	-8421
deans	-8422
dings	-8423
direc	-8424
diver	-8425
doing	-8426
duces	-8427
eager	-8428
ealed	-8429
eanor	-8430
earby	-8431
eases	-8432
eated	-8433
ecent	-8434
edias	-8435
enact	-8436
enfor	-8437
enger	-8438
ength	-8439
entle	-8440
filed	-8441
final	-8442
flash	-8443
fonts	-8444
forge	-8445
forme	-8446
forth	-8447
fying	-8448
games	-8449
given	-8450
gnant	-8451
grace	-8452
grade	-8453
grams	-8454
groom	-8455
group	-8456
holic	-8457
holid	-8458
honor	-8459
iance	-8460
idate	-8461
ience	-8462
igned	-8463
ineer	-8464
inger	-8465
ingly	-8466
ining	-8467
inter	-8468
isite	-8469
ivery	-8470
koned	-8471
later	-8472
learn	-8473
lecon	-8474
lined	-8475
media	-8476
month	-8477
moral	-8478
mower	-8479
odate	-8480
offer	-8481
olute	-8482
ongue	-8483
onize	-8484
ordin	-8485
ounce	-8486
ounds	-8487
paper	-8488
phabe	-8489
plays	-8490
plore	-8491
pping	-8492
proxy	-8493
ready	-8494
resid	-8495
rests	-8496
rinks	-8497
rooms	-8498
scrip	-8499
selec	-8500
sibly	-8501
solve	-8502
ssing	-8503
stood	-8504
style	-8505
surer	-8506
techn	-8507
tency	-8508
tends	-8509
those	-8510
three	-8511
tilla	-8512
tinue	-8513
tmost	-8514
train	-8515
tured	-8516
ucked	-8517
ucous	-8518
uests	-8519
ulars	-8520
ulate	-8521
ullet	-8522
uming	-8523
unken	-8524
ureau	-8525
urvey	-8526
usion	-8527
usual	-8528
utine	-8529
venue	-8530
vings	-8531
virtu	-8532
wants	-8533
words	-8534
yclop	-8535
▁ACTS	-8536
▁ALSO	-8537
▁ANTI	-8538
▁AVEN	-8539
▁AVER	-8540
▁Acts	-8541
▁Also	-8542
▁Anti	-8543
▁Area	-8544
▁Back	-8545
▁Bowl	-8546
▁Brib	-8547
▁CARR	-8548
▁CELO	-8549
▁COPY	-8550
▁CRIM	-8551
▁CUST	-8552
▁CWTS	-8553
▁Card	-8554
▁Caus	-8555
▁Circ	-8556
▁DRUG	-8557
▁Decl	-8558
▁Dish	-8559
▁Entr	-8560
▁Equi	-8561
▁Exis	-8562
▁FERF	-8563
▁FIDE	-8564
▁FLOW	-8565
▁Give	-8566
▁Have	-8567
▁Here	-8568
▁IRIS	-8569
▁JOAN	-8570
▁JOSE	-8571
▁Joan	-8572
▁LIFE	-8573
▁LUCs	-8574
▁Lear	-8575
▁Live	-8576
▁Long	-8577
▁Lost	-8578
▁Loud	-8579
▁MSWD	-8580
▁Malf	-8581
▁Math	-8582
▁Mean	-8583
▁Meet	-8584
▁NAME	-8585
▁NIDA	-8586
▁Name	-8587
▁None	-8588
▁ONCE	-8589
▁ONLY	-8590
▁OSAS	-8591
▁Oral	-8592
▁Oval	-8593
▁PLAY	-8594
▁Patr	-8595
▁Polo	-8596
▁Pomp	-8597
▁Pool	-8598
▁Post	-8599
▁SANC	-8600
▁SEAL	-8601
▁SLIP	-8602
▁SUCs	-8603
▁Said	-8604
▁Sanc	-8605
▁Seal	-8606
▁Seek	-8607
▁Sett	-8608
▁Stor	-8609
▁Such	-8610
▁Swim	-8611
▁THRE	-8612
▁THUS	-8613
▁Tape	-8614
▁Term	-8615
▁That	-8616
▁VAND	-8617
▁VARS	-8618
▁VICE	-8619
▁VILL	-8620
▁WEAP	-8621
▁Wall	-8622
▁Will	-8623
▁Work	-8624
▁Zoom	-8625
▁____	-8626
▁able	-8627
▁alma	-8628
▁argu	-8629
▁asyn	-8630
▁bacn	-8631
▁ball	-8632
▁bear	-8633
▁bill	-8634
▁bold	-8635
▁bond	-8636
▁camp	-8637
▁cart	-8638
▁clar	-8639
▁coin	-8640
▁conv	-8641
▁craf	-8642
▁crea	-8643
▁cruc	-8644
▁dark	-8645
▁deep	-8646
▁dele	-8647
▁dest	-8648
▁dign	-8649
▁dose	-8650
▁dres	-8651
▁drop	-8652
▁dues	-8653
▁easy	-8654
▁eleg	-8655
▁else	-8656
▁emin	-8657
▁este	-8658
▁exig	-8659
▁eyeb	-8660
▁face	-8661
▁fact	-8662
▁fake	-8663
▁fans	-8664
▁fash	-8665
▁firm	-8666
▁gets	-8667
▁guar	-8668
▁hool	-8669
▁hour	-8670
▁icon	-8671
▁info	-8672
▁inim	-8673
▁insp	-8674
▁jail	-8675
▁just	-8676
▁knot	-8677
▁lies	-8678
▁lieu	-8679
▁mach	-8680
▁mass	-8681
▁menu	-8682
▁mess	-8683
▁mind	-8684
▁mini	-8685
▁mode	-8686
▁moot	-8687
▁move	-8688
▁much	-8689
▁neat	-8690
▁neck	-8691
▁news	-8692
▁next	-8693
▁nose	-8694
▁note	-8695
▁null	-8696
▁nutr	-8697
▁oral	-8698
▁page	-8699
▁pand	-8700
▁pers	-8701
▁pimp	-8702
▁plun	-8703
▁poli	-8704
▁pron	-8705
▁puni	-8706
▁reim	-8707
▁rich	-8708
▁role	-8709
▁seal	-8710
▁shou	-8711
▁sick	-8712
▁side	-8713
▁solo	-8714
▁spur	-8715
▁step	-8716
▁sust	-8717
▁swit	-8718
▁task	-8719
▁tear	-8720
▁thor	-8721
▁thru	-8722
▁trim	-8723
▁tube	-8724
▁vice	-8725
▁warm	-8726
▁ways	-8727
▁wise	-8728
▁zero	-8729
ADDING	-8730
ALIENS	-8731
ALIZED	-8732
ANGING	-8733
ANTEES	-8734
Affair	-8735
Author	-8736
Auxili	-8737
BANCES	-8738
BELITA	-8739
Bridge	-8740
CAMPUS	-8741
CELLAN	-8742
COMMON	-8743
Career	-8744
Chapel	-8745
Charge	-8746
Classi	-8747
Collec	-8748
Copies	-8749
Course	-8750
DISAST	-8751
Danger	-8752
Doctor	-8753
Dormit	-8754
EDURES	-8755
EMISES	-8756
ERCING	-8757
ESTICO	-8758
FENSES	-8759
FERING	-8760
FOURTH	-8761
Firing	-8762
Friday	-8763
GOVERN	-8764
GUARDI	-8765
Google	-8766
Govern	-8767
Grades	-8768
Grants	-8769
HAVIOR	-8770
HAZING	-8771
Highly	-8772
IANITA	-8773
INCOMP	-8774
Incomp	-8775
JUDITH	-8776
LIANCE	-8777
MEDALS	-8778
MENTAL	-8779
NUMBER	-8780
OLICIT	-8781
PENDED	-8782
PERMIT	-8783
PERSON	-8784
PRELIM	-8785
Passed	-8786
Period	-8787
Poblac	-8788
Propon	-8789
RATING	-8790
REFUND	-8791
REQUIS	-8792
RESPEC	-8793
Remote	-8794
SAFETY	-8795
SCHOOL	-8796
SECOND	-8797
SEMBLY	-8798
SERVIC	-8799
Safety	-8800
Secret	-8801
Secure	-8802
Signal	-8803
Sports	-8804
TIMIDA	-8805
TIVITY	-8806
TONINO	-8807
Unlike	-8808
VOLLEY	-8809
Within	-8810
afford	-8811
agenda	-8812
aliens	-8813
alized	-8814
altern	-8815
analyz	-8816
ancies	-8817
answer	-8818
aphers	-8819
arable	-8820
arding	-8821
arrass	-8822
askets	-8823
aspect	-8824
assist	-8825
attire	-8826
became	-8827
byters	-8828
caused	-8829
cedure	-8830
cholar	-8831
connec	-8832
course	-8833
damage	-8834
deadly	-8835
derant	-8836
entist	-8837
ercing	-8838
esting	-8839
etness	-8840
evolve	-8841
exceed	-8842
ferral	-8843
fiable	-8844
folded	-8845
forums	-8846
funded	-8847
future	-8848
gering	-8849
gional	-8850
govern	-8851
guided	-8852
health	-8853
herein	-8854
hibits	-8855
honors	-8856
hunger	-8857
iarize	-8858
iating	-8859
icting	-8860
iented	-8861
ijuana	-8862
illust	-8863
immedi	-8864
impose	-8865
inform	-8866
inspec	-8867
instru	-8868
integr	-8869
itious	-8870
ivotal	-8871
latter	-8872
licked	-8873
longer	-8874
loring	-8875
losing	-8876
manner	-8877
mature	-8878
misdem	-8879
modest	-8880
modify	-8881
moting	-8882
olicit	-8883
oncili	-8884
orance	-8885
oreogr	-8886
orrect	-8887
ounded	-8888
ousand	-8889
papers	-8890
perman	-8891
permit	-8892
phoons	-8893
pitude	-8894
placed	-8895
powers	-8896
protec	-8897
quorum	-8898
record	-8899
reedom	-8900
refuse	-8901
rement	-8902
remony	-8903
reserv	-8904
respec	-8905
ridors	-8906
rights	-8907
rorism	-8908
rowing	-8909
rusted	-8910
safegu	-8911
should	-8912
siders	-8913
siding	-8914
siping	-8915
stored	-8916
storms	-8917
streng	-8918
strual	-8919
struct	-8920
tempor	-8921
tering	-8922
tilate	-8923
timate	-8924
titude	-8925
turing	-8926
twenty	-8927
uggled	-8928
utable	-8929
verbal	-8930
victed	-8931
vinced	-8932
wishes	-8933
worthy	-8934
ysique	-8935
▁ABUSE	-8936
▁ACUÑA	-8937
▁AGITA	-8938
▁Alien	-8939
▁Among	-8940
▁Aside	-8941
▁BOOKS	-8942
▁BREAK	-8943
▁BUSIN	-8944
▁Being	-8945
▁Brawl	-8946
▁Brown	-8947
▁CASES	-8948
▁CERTI	-8949
▁CLARK	-8950
▁CLEAR	-8951
▁Cajes	-8952
▁Carry	-8953
▁Citiz	-8954
▁Civic	-8955
▁Clubs	-8956
▁Coach	-8957
▁Corps	-8958
▁Cyber	-8959
▁DEANS	-8960
▁Dated	-8961
▁Doing	-8962
▁Dress	-8963
▁EQUIP	-8964
▁Entry	-8965
▁Extor	-8966
▁FIELD	-8967
▁FILIP	-8968
▁FIRST	-8969
▁Focal	-8970
▁GAMBL	-8971
▁GIVEN	-8972
▁GRADE	-8973
▁Gross	-8974
▁Guide	-8975
▁HEADS	-8976
▁Hence	-8977
▁IMBOY	-8978
▁INFRA	-8979
▁Icons	-8980
▁Impru	-8981
▁KEVIN	-8982
▁LABOR	-8983
▁LATIN	-8984
▁Libel	-8985
▁Liter	-8986
▁MARIA	-8987
▁MORAL	-8988
▁Medal	-8989
▁Minor	-8990
▁NATUR	-8991
▁NAVAL	-8992
▁NORMS	-8993
▁NUGAL	-8994
▁Nurse	-8995
▁PROHI	-8996
▁Press	-8997
▁Princ	-8998
▁Prior	-8999
▁RCrim	-9000
▁REGIE	-9001
▁ROBIE	-9002
▁Range	-9003
▁Robie	-9004
▁SAWAN	-9005
▁SHEET	-9006
▁SOCIO	-9007
▁SPONS	-9008
▁STUDY	-9009
▁Short	-9010
▁Since	-9011
▁Slips	-9012
▁Socio	-9013
▁TOURS	-9014
▁TRIPS	-9015
▁Teams	-9016
▁Theft	-9017
▁Third	-9018
▁Three	-9019
▁Torch	-9020
▁Track	-9021
▁UNDER	-9022
▁Viber	-9023
▁Votes	-9024
▁WHITE	-9025
▁While	-9026
▁achie	-9027
▁admit	-9028
▁adver	-9029
▁again	-9030
▁ahead	-9031
▁alien	-9032
▁allot	-9033
▁alone	-9034
▁along	-9035
▁alter	-9036
▁ardor	-9037
▁ascer	-9038
▁aside	-9039
▁audio	-9040
▁banks	-9041
▁benef	-9042
▁bever	-9043
▁brief	-9044
▁capac	-9045
▁cease	-9046
▁chalk	-9047
▁click	-9048
▁clubs	-9049
▁crime	-9050
▁cruel	-9051
▁culti	-9052
▁dedic	-9053
▁deeds	-9054
▁defin	-9055
▁delay	-9056
▁derog	-9057
▁desks	-9058
▁dirty	-9059
▁disch	-9060
▁doing	-9061
▁doors	-9062
▁equal	-9063
▁equip	-9064
▁espec	-9065
▁estim	-9066
▁etiqu	-9067
▁exemp	-9068
▁extra	-9069
▁facts	-9070
▁falsi	-9071
▁fidel	-9072
▁files	-9073
▁floor	-9074
▁fonts	-9075
▁frequ	-9076
▁grant	-9077
▁grave	-9078
▁guilt	-9079
▁helps	-9080
▁hence	-9081
▁hired	-9082
▁https	-9083
▁icons	-9084
▁incon	-9085
▁insur	-9086
▁inten	-9087
▁inval	-9088
▁invec	-9089
▁joint	-9090
▁kinds	-9091
▁light	-9092
▁lines	-9093
▁lives	-9094
▁loads	-9095
▁makes	-9096
▁meals	-9097
▁modes	-9098
▁narco	-9099
▁navel	-9100
▁noted	-9101
▁objec	-9102
▁oppos	-9103
▁owned	-9104
▁pages	-9105
▁pamph	-9106
▁panic	-9107
▁parts	-9108
▁peace	-9109
▁peers	-9110
▁pleas	-9111
▁prank	-9112
▁proof	-9113
▁rates	-9114
▁remun	-9115
▁rites	-9116
▁rolls	-9117
▁rumor	-9118
▁scene	-9119
▁seeks	-9120
▁seize	-9121
▁serif	-9122
▁shame	-9123
▁shirt	-9124
▁shops	-9125
▁shown	-9126
▁skirt	-9127
▁slack	-9128
▁sleep	-9129
▁smart	-9130
▁smoke	-9131
▁socks	-9132
▁solve	-9133
▁sound	-9134
▁spons	-9135
▁sport	-9136
▁stair	-9137
▁teams	-9138
▁tests	-9139
▁theft	-9140
▁theme	-9141
▁torch	-9142
▁towns	-9143
▁track	-9144
▁treat	-9145
▁trium	-9146
▁unbec	-9147
▁undue	-9148
▁uneth	-9149
▁usurp	-9150
▁vague	-9151
▁venue	-9152
▁vicin	-9153
▁visit	-9154
▁votes	-9155
▁walls	-9156
▁waste	-9157
▁whist	-9158
ALLMENT	-9159
ATENING	-9160
ATORIES	-9161
AVERAGE	-9162
Account	-9163
Address	-9164
Adopted	-9165
Adviser	-9166
CENTAGE	-9167
COLLEGE	-9168
COURSES	-9169
Contact	-9170
Coordin	-9171
Culture	-9172
Current	-9173
Defense	-9174
Diploma	-9175
Dropped	-9176
ECTIVES	-9177
EnSciMa	-9178
Endorse	-9179
FICATES	-9180
Failure	-9181
GENERAL	-9182
GRADING	-9183
General	-9184
HIGHEST	-9185
HONESTY	-9186
ISHABLE	-9187
LAYAGAN	-9188
Liaison	-9189
MINABLE	-9190
Members	-9191
Midterm	-9192
OLASTIC	-9193
OLUTELY	-9194
ORGANIZ	-9195
OSITION	-9196
Offices	-9197
PARENTS	-9198
Present	-9199
Promulg	-9200
Provide	-9201
Quality	-9202
Quizzes	-9203
REMARKS	-9204
Reserve	-9205
SHIFTEE	-9206
SPECIAL	-9207
SPECTUS	-9208
SUBJECT	-9209
SUPPORT	-9210
TORIANO	-9211
TROYING	-9212
UBJECTS	-9213
VINCIAL	-9214
Writing	-9215
Written	-9216
account	-9217
advance	-9218
aghetti	-9219
ainable	-9220
appoint	-9221
artfelt	-9222
attempt	-9223
average	-9224
bearing	-9225
between	-9226
brought	-9227
calling	-9228
canteen	-9229
commits	-9230
concern	-9231
condemn	-9232
conspir	-9233
courses	-9234
current	-9235
dealing	-9236
deprive	-9237
disqual	-9238
diverse	-9239
eagerly	-9240
elected	-9241
embrace	-9242
engaged	-9243
ershirt	-9244
esigned	-9245
evident	-9246
explain	-9247
forging	-9248
fortuit	-9249
further	-9250
general	-9251
groomed	-9252
grounds	-9253
growing	-9254
hancing	-9255
harmful	-9256
helping	-9257
highest	-9258
hoodlum	-9259
husiasm	-9260
iganism	-9261
imposed	-9262
improve	-9263
inistry	-9264
instruc	-9265
involve	-9266
journal	-9267
journey	-9268
leaving	-9269
licting	-9270
lighten	-9271
limited	-9272
located	-9273
looking	-9274
maximum	-9275
meaning	-9276
mulgate	-9277
network	-9278
obscene	-9279
offense	-9280
olesome	-9281
olutely	-9282
omitted	-9283
orrowed	-9284
otional	-9285
overall	-9286
parents	-9287
parties	-9288
passers	-9289
pectors	-9290
penalty	-9291
pensing	-9292
percent	-9293
periods	-9294
persons	-9295
perspec	-9296
players	-9297
portion	-9298
posters	-9299
posting	-9300
present	-9301
prevent	-9302
process	-9303
pulated	-9304
purpose	-9305
raising	-9306
reasons	-9307
regular	-9308
results	-9309
revised	-9310
revoked	-9311
savings	-9312
serving	-9313
shaping	-9314
sharing	-9315
similar	-9316
sistent	-9317
solving	-9318
spapers	-9319
stating	-9320
strikes	-9321
success	-9322
summary	-9323
systems	-9324
talents	-9325
teacher	-9326
teering	-9327
tellect	-9328
thrusts	-9329
tically	-9330
torical	-9331
torting	-9332
tryouts	-9333
turally	-9334
unities	-9335
uscript	-9336
vacancy	-9337
valency	-9338
ventory	-9339
victims	-9340
wherein	-9341
whether	-9342
willing	-9343
working	-9344
▁ADULTS	-9345
▁ALUMNI	-9346
▁ASSAUL	-9347
▁ASSOCI	-9348
▁ATTEND	-9349
▁AWARDS	-9350
▁Adding	-9351
▁Advice	-9352
▁Assess	-9353
▁Assume	-9354
▁Awards	-9355
▁BASKET	-9356
▁BULALA	-9357
▁Before	-9358
▁Boards	-9359
▁Bureau	-9360
▁CENTER	-9361
▁CIRCUL	-9362
▁COURSE	-9363
▁CREDEN	-9364
▁CRIMES	-9365
▁Candid	-9366
▁Career	-9367
▁DEADLY	-9368
▁DEPART	-9369
▁DISTUR	-9370
▁DUNGOG	-9371
▁DUTIES	-9372
▁Degree	-9373
▁Design	-9374
▁Direct	-9375
▁Dormit	-9376
▁ELECTR	-9377
▁EVELYN	-9378
▁EVENTS	-9379
▁EXCEPT	-9380
▁Eating	-9381
▁Fourth	-9382
▁GARCIA	-9383
▁GOVERN	-9384
▁Gender	-9385
▁Google	-9386
▁Grants	-9387
▁HAZING	-9388
▁HEALTH	-9389
▁Hazing	-9390
▁INSIDE	-9391
▁Immigr	-9392
▁Intent	-9393
▁Lister	-9394
▁MANUEL	-9395
▁MARINA	-9396
▁MARLON	-9397
▁MEDINA	-9398
▁MELVIN	-9399
▁MISAEL	-9400
▁Making	-9401
▁Mullet	-9402
▁Output	-9403
▁PERSON	-9404
▁PHYSIC	-9405
▁PRIZES	-9406
▁Please	-9407
▁Proper	-9408
▁QUISTO	-9409
▁Render	-9410
▁Reserv	-9411
▁SECTOR	-9412
▁SEXUAL	-9413
▁SHERYL	-9414
▁SINGLE	-9415
▁SOCIAL	-9416
▁SYSTEM	-9417
▁Sector	-9418
▁Serves	-9419
▁TABADA	-9420
▁TAKING	-9421
▁Tables	-9422
▁Taking	-9423
▁Twenty	-9424
▁Values	-9425
▁Verify	-9426
▁Visual	-9427
▁WITHIN	-9428
▁Within	-9429
▁Wreath	-9430
▁_____,	-9431
▁accept	-9432
▁accomm	-9433
▁adding	-9434
▁admits	-9435
▁affirm	-9436
▁agenda	-9437
▁agreed	-9438
▁allied	-9439
▁appren	-9440
▁around	-9441
▁arrest	-9442
▁artist	-9443
▁assert	-9444
▁assess	-9445
▁assets	-9446
▁assume	-9447
▁avenue	-9448
▁banner	-9449
▁barong	-9450
▁behave	-9451
▁belief	-9452
▁bolero	-9453
▁checks	-9454
▁choice	-9455
▁circle	-9456
▁claims	-9457
▁closed	-9458
▁commit	-9459
▁common	-9460
▁create	-9461
▁curfew	-9462
▁danger	-9463
▁decide	-9464
▁denied	-9465
▁direct	-9466
▁disreg	-9467
▁dosage	-9468
▁dreams	-9469
▁drinks	-9470
▁embody	-9471
▁encomp	-9472
▁ending	-9473
▁enrich	-9474
▁enumer	-9475
▁ethnic	-9476
▁factor	-9477
▁father	-9478
▁finger	-9479
▁flimsy	-9480
▁floors	-9481
▁forged	-9482
▁formal	-9483
▁formed	-9484
▁funded	-9485
▁gangst	-9486
▁gather	-9487
▁gentle	-9488
▁global	-9489
▁groups	-9490
▁guards	-9491
▁guests	-9492
▁halter	-9493
▁hamper	-9494
▁hiring	-9495
▁houses	-9496
▁images	-9497
▁impair	-9498
▁implic	-9499
▁impris	-9500
▁incurs	-9501
▁injury	-9502
▁latter	-9503
▁leader	-9504
▁legiti	-9505
▁length	-9506
▁lesson	-9507
▁liable	-9508
▁lifted	-9509
▁lights	-9510
▁limits	-9511
▁listed	-9512
▁litter	-9513
▁manage	-9514
▁mental	-9515
▁missed	-9516
▁misuse	-9517
▁mobile	-9518
▁moment	-9519
▁morale	-9520
▁morals	-9521
▁mother	-9522
▁nearby	-9523
▁notify	-9524
▁occurs	-9525
▁offend	-9526
▁opened	-9527
▁openly	-9528
▁owners	-9529
▁paging	-9530
▁phones	-9531
▁photoc	-9532
▁powers	-9533
▁prelim	-9534
▁prepon	-9535
▁prizes	-9536
▁propio	-9537
▁raised	-9538
▁rather	-9539
▁refers	-9540
▁refuse	-9541
▁remain	-9542
▁scraps	-9543
▁search	-9544
▁secret	-9545
▁sector	-9546
▁serial	-9547
▁settle	-9548
▁silent	-9549
▁simply	-9550
▁skirts	-9551
▁snacks	-9552
▁sophis	-9553
▁speech	-9554
▁stated	-9555
▁states	-9556
▁stores	-9557
▁styles	-9558
▁summer	-9559
▁supers	-9560
▁survey	-9561
▁talked	-9562
▁tattoo	-9563
▁things	-9564
▁thrice	-9565
▁thrive	-9566
▁titles	-9567
▁tongue	-9568
▁trends	-9569
▁tucked	-9570
▁tumult	-9571
▁unduly	-9572
▁utmost	-9573
▁vested	-9574
▁voters	-9575
▁voting	-9576
▁wasteb	-9577
▁weapon	-9578
▁worker	-9579
▁wounds	-9580
▁yellow	-9581
Absences	-9582
Addition	-9583
Agencies	-9584
Assembly	-9585
BSEQUENT	-9586
Bullying	-9587
CREPANCY	-9588
CRITERIA	-9589
CULTURAL	-9590
Canteens	-9591
Category	-9592
Conforme	-9593
Congress	-9594
Cultural	-9595
DROPPING	-9596
Detailed	-9597
ECTIVITY	-9598
Employee	-9599
Facebook	-9600
Governor	-9601
IMPRISON	-9602
National	-9603
Official	-9604
PONSIBIL	-9605
PREGNANT	-9606
PREMISES	-9607
Panelist	-9608
Policies	-9609
Practice	-9610
Programs	-9611
Province	-9612
Pursuant	-9613
RESIDENT	-9614
RETURNEE	-9615
Remember	-9616
Returnee	-9617
SERVICES	-9618
TABILITY	-9619
TEGORIES	-9620
Teaching	-9621
Tertiary	-9622
Transfer	-9623
UNKENESS	-9624
accepted	-9625
accounts	-9626
acquired	-9627
addition	-9628
advising	-9629
agencies	-9630
analysis	-9631
announce	-9632
anywhere	-9633
autonomy	-9634
barangay	-9635
booklets	-9636
bulletin	-9637
ceremony	-9638
chapters	-9639
choosing	-9640
citizens	-9641
civilian	-9642
composed	-9643
conducts	-9644
contract	-9645
courtesy	-9646
criteria	-9647
demonstr	-9648
disburse	-9649
distingu	-9650
document	-9651
employee	-9652
ensurate	-9653
entrance	-9654
esirable	-9655
expected	-9656
expelled	-9657
facebook	-9658
facility	-9659
ficiency	-9660
findings	-9661
flashing	-9662
founding	-9663
function	-9664
graceful	-9665
guardian	-9666
holidays	-9667
included	-9668
indecent	-9669
investig	-9670
isterial	-9671
journals	-9672
language	-9673
laterals	-9674
lectures	-9675
messages	-9676
morality	-9677
mowering	-9678
national	-9679
observed	-9680
offenses	-9681
offering	-9682
oriented	-9683
particip	-9684
payments	-9685
possible	-9686
presence	-9687
previous	-9688
property	-9689
punished	-9690
realized	-9691
reenroll	-9692
referred	-9693
remember	-9694
rendered	-9695
requests	-9696
required	-9697
schedule	-9698
security	-9699
selected	-9700
seminars	-9701
studying	-9702
teachers	-9703
ticeship	-9704
training	-9705
transfer	-9706
urricula	-9707
ventions	-9708
xicating	-9709
yourself	-9710
▁AGAINST	-9711
▁AVENIDO	-9712
▁Abbrevi	-9713
▁Absence	-9714
▁Analyze	-9715
▁BALANCE	-9716
▁BARADAS	-9717
▁Between	-9718
▁Bribing	-9719
▁CATANIO	-9720
▁CONCERN	-9721
▁CONSEQU	-9722
▁COORDIN	-9723
▁Causing	-9724
▁Certify	-9725
▁Collect	-9726
▁Convers	-9727
▁DELLOSA	-9728
▁Damaged	-9729
▁Deposit	-9730
▁Despite	-9731
▁Diction	-9732
▁Discrim	-9733
▁ELENITA	-9734
▁Embrace	-9735
▁Fitness	-9736
▁Forgery	-9737
▁Hacking	-9738
▁Healthy	-9739
▁Highest	-9740
▁Hundred	-9741
▁Illicit	-9742
▁Instruc	-9743
▁LETTERS	-9744
▁LIBRARY	-9745
▁Loading	-9746
▁MAINTEN	-9747
▁MAXIMUM	-9748
▁MORALLY	-9749
▁Mothers	-9750
▁OPTIONS	-9751
▁ORGANIZ	-9752
▁Offices	-9753
▁PENALTY	-9754
▁PLAYERS	-9755
▁Parents	-9756
▁Patrons	-9757
▁Possess	-9758
▁Posters	-9759
▁Printed	-9760
▁Project	-9761
▁Propose	-9762
▁QUIRINO	-9763
▁RATINGS	-9764
▁REFRAIN	-9765
▁Retreat	-9766
▁SALISID	-9767
▁SEGUNDO	-9768
▁SELVINO	-9769
▁SOLICIT	-9770
▁SUPPORT	-9771
▁SUPREME	-9772
▁Scholar	-9773
▁Schools	-9774
▁Senator	-9775
▁Silence	-9776
▁Slicked	-9777
▁Smoking	-9778
▁Storage	-9779
▁Sundays	-9780
▁Tactics	-9781
▁Tagline	-9782
▁VARSITY	-9783
▁WEAPONS	-9784
▁Whether	-9785
▁Willful	-9786
▁abbrevi	-9787
▁abusive	-9788
▁acquire	-9789
▁adjusts	-9790
▁advised	-9791
▁advises	-9792
▁affects	-9793
▁aligned	-9794
▁alphabe	-9795
▁already	-9796
▁availed	-9797
▁banging	-9798
▁becomes	-9799
▁believe	-9800
▁billing	-9801
▁bonding	-9802
▁braless	-9803
▁canvass	-9804
▁captain	-9805
▁carried	-9806
▁centers	-9807
▁certify	-9808
▁chapter	-9809
▁choices	-9810
▁cleared	-9811
▁clothes	-9812
▁coaches	-9813
▁coastal	-9814
▁comfort	-9815
▁company	-9816
▁compose	-9817
▁concave	-9818
▁convene	-9819
▁conveys	-9820
▁counted	-9821
▁crafted	-9822
▁created	-9823
▁creates	-9824
▁crucial	-9825
▁decency	-9826
▁decides	-9827
▁deliver	-9828
▁dentist	-9829
▁desired	-9830
▁destroy	-9831
▁details	-9832
▁directs	-9833
▁dresses	-9834
▁drunken	-9835
▁edition	-9836
▁empower	-9837
▁enforce	-9838
▁engaged	-9839
▁entails	-9840
▁evasion	-9841
▁excuses	-9842
▁express	-9843
▁extreme	-9844
▁eyebrow	-9845
▁factors	-9846
▁fashion	-9847
▁feeling	-9848
▁fitting	-9849
▁focuses	-9850
▁freedom	-9851
▁furnish	-9852
▁gesture	-9853
▁gravity	-9854
▁guiding	-9855
▁haircut	-9856
▁history	-9857
▁honored	-9858
▁hurling	-9859
▁ideally	-9860
▁immense	-9861
▁immerse	-9862
▁implore	-9863
▁imposes	-9864
▁inadver	-9865
▁induces	-9866
▁insurer	-9867
▁joining	-9868
▁leading	-9869
▁learned	-9870
▁leather	-9871
▁lecture	-9872
▁liaison	-9873
▁lifting	-9874
▁linkage	-9875
▁loyalty	-9876
▁machine	-9877
▁mandate	-9878
▁manners	-9879
▁marital	-9880
▁measure	-9881
▁mention	-9882
▁mentors	-9883
▁midriff	-9884
▁minimal	-9885
▁minutes	-9886
▁morally	-9887
▁notices	-9888
▁obliged	-9889
▁opening	-9890
▁operate	-9891
▁orderly	-9892
▁payable	-9893
▁pending	-9894
▁permits	-9895
▁persist	-9896
▁pimping	-9897
▁pivotal	-9898
▁polling	-9899
▁premier	-9900
▁prepare	-9901
▁preside	-9902
▁profile	-9903
▁protect	-9904
▁pursuit	-9905
▁quadrup	-9906
▁raising	-9907
▁ranging	-9908
▁ranking	-9909
▁raucous	-9910
▁remarks	-9911
▁removal	-9912
▁removed	-9913
▁reserve	-9914
▁resolve	-9915
▁revolve	-9916
▁robbery	-9917
▁routine	-9918
▁scholas	-9919
▁selling	-9920
▁sending	-9921
▁signify	-9922
▁solicit	-9923
▁someone	-9924
▁staying	-9925
▁strands	-9926
▁strateg	-9927
▁subvert	-9928
▁suggest	-9929
▁summits	-9930
▁suspend	-9931
▁symbols	-9932
▁tagline	-9933
▁talking	-9934
▁teacher	-9935
▁telecon	-9936
▁theater	-9937
▁thought	-9938
▁thrusts	-9939
▁topping	-9940
▁tossing	-9941
▁unusual	-9942
▁victims	-9943
▁viewing	-9944
▁waivers	-9945
▁warmest	-9946
▁weather	-9947
▁wedding	-9948
▁welcome	-9949
▁wherein	-9950
▁whether	-9951
▁willful	-9952
▁workers	-9953
AGREEMENT	-9954
Authority	-9955
Auxiliary	-9956
Borrowers	-9957
COMMITTEE	-9958
Classroom	-9959
Custodian	-9960
Dangerous	-9961
Electoral	-9962
Excellent	-9963
Exclusion	-9964
Expulsion	-9965
Extension	-9966
FUNCTIONS	-9967
GUARDIANS	-9968
Guardians	-9969
Gymnasium	-9970
Institute	-9971
Librarian	-9972
MISCELLAN	-9973
MUNICIPAL	-9974
NUMERICAL	-9975
Physician	-9976
Poblacion	-9977
Positions	-9978
Proponent	-9979
REQUISITE	-9980
RESIDENTS	-9981
Returning	-9982
Saturdays	-9983
Secretary	-9984
Treasurer	-9985
allowance	-9986
analyzing	-9987
ationship	-9988
authority	-9989
broadcast	-9990
ceptional	-9991
certified	-9992
checklist	-9993
classroom	-9994
committed	-9995
conducted	-9996
connected	-9997
convinced	-9998
deserving	-9999
directors	-10000
efficient	-10001
embarrass	-10002
endeavors	-10003
enrolling	-10004
entrusted	-10005
exceeding	-10006
excellent	-10007
excessive	-10008
exclusion	-10009
fications	-10010
governing	-10011
gratitude	-10012
guardians	-10013
impending	-10014
inclusion	-10015
influence	-10016
institute	-10017
integrity	-10018
interests	-10019
librarian	-10020
messenger	-10021
observing	-10022
offensive	-10023
orporates	-10024
patronize	-10025
permitted	-10026
personnel	-10027
political	-10028
practices	-10029
prohibits	-10030
rehension	-10031
renewable	-10032
requiring	-10033
residency	-10034
schooling	-10035
standards	-10036
submitted	-10037
successor	-10038
supervise	-10039
tampering	-10040
technical	-10041
terrorism	-10042
therefore	-10043
treasurer	-10044
unexcused	-10045
unexpired	-10046
urinating	-10047
vacancies	-10048
virtually	-10049
▁ACTIVITY	-10050
▁ANTONINO	-10051
▁ASSEMBLY	-10052
▁Advisers	-10053
▁Advising	-10054
▁BARANGAY	-10055
▁BEHAVIOR	-10056
▁BUSINESS	-10057
▁Borrowed	-10058
▁Bulletin	-10059
▁CARRYING	-10060
▁CHANGING	-10061
▁COERCING	-10062
▁CRIMINAL	-10063
▁CULTURAL	-10064
▁Certific	-10065
▁Charging	-10066
▁Children	-10067
▁Citizens	-10068
▁Coercing	-10069
▁DROPPING	-10070
▁Defaming	-10071
▁Delivery	-10072
▁Dropping	-10073
▁ENROLLED	-10074
▁Election	-10075
▁Encyclop	-10076
▁Engineer	-10077
▁Entering	-10078
▁Entrance	-10079
▁Envelope	-10080
▁Existing	-10081
▁FOLLOWED	-10082
▁Fighting	-10083
▁GAMBLING	-10084
▁GRANTEES	-10085
▁GUIDANCE	-10086
▁INTIMIDA	-10087
▁Learning	-10088
▁Literacy	-10089
▁MORALITY	-10090
▁Ministry	-10091
▁NATIONAL	-10092
▁OBSERVED	-10093
▁OFFENSES	-10094
▁OFFERING	-10095
▁Omission	-10096
▁Overview	-10097
▁PAYMENTS	-10098
▁PREMISES	-10099
▁PROPERTY	-10100
▁Payments	-10101
▁Pregnant	-10102
▁REGARDED	-10103
▁RETURNEE	-10104
▁Referral	-10105
▁Regional	-10106
▁Relation	-10107
▁Reserved	-10108
▁Resident	-10109
▁Response	-10110
▁Returnee	-10111
▁Romantic	-10112
▁SPONSORS	-10113
▁STANDARD	-10114
▁SUBJECTS	-10115
▁Senators	-10116
▁Separate	-10117
▁Swimming	-10118
▁Thousand	-10119
▁Throwing	-10120
▁VILLAMOR	-10121
▁Violence	-10122
▁accorded	-10123
▁achieved	-10124
▁acquires	-10125
▁adopting	-10126
▁advances	-10127
▁advisers	-10128
▁advising	-10129
▁applying	-10130
▁arranged	-10131
▁attended	-10132
▁attitude	-10133
▁balanced	-10134
▁ballpens	-10135
▁behaving	-10136
▁boarding	-10137
▁borrower	-10138
▁calamity	-10139
▁cashbook	-10140
▁category	-10141
▁centered	-10142
▁cheating	-10143
▁children	-10144
▁choreogr	-10145
▁comments	-10146
▁commonly	-10147
▁continue	-10148
▁contrast	-10149
▁courtesy	-10150
▁creating	-10151
▁dealings	-10152
▁debarred	-10153
▁defiance	-10154
▁deletion	-10155
▁deposits	-10156
▁describe	-10157
▁detailed	-10158
▁develops	-10159
▁diseases	-10160
▁displays	-10161
▁dissolve	-10162
▁distract	-10163
▁dressing	-10164
▁elegance	-10165
▁eminence	-10166
▁encoding	-10167
▁enforced	-10168
▁engaging	-10169
▁equipped	-10170
▁esteemed	-10171
▁examinee	-10172
▁executed	-10173
▁exercise	-10174
▁exposing	-10175
▁extended	-10176
▁failures	-10177
▁fidelity	-10178
▁flooding	-10179
▁formally	-10180
▁freshmen	-10181
▁governed	-10182
▁haircuts	-10183
▁handling	-10184
▁holidays	-10185
▁incurred	-10186
▁indicate	-10187
▁informed	-10188
▁inimical	-10189
▁injuries	-10190
▁installs	-10191
▁intimate	-10192
▁managing	-10193
▁mandated	-10194
▁markings	-10195
▁material	-10196
▁maturity	-10197
▁messages	-10198
▁modified	-10199
▁movement	-10200
▁multiple	-10201
▁mutilate	-10202
▁narcotic	-10203
▁neckline	-10204
▁normally	-10205
▁nurtured	-10206
▁obstruct	-10207
▁offering	-10208
▁operated	-10209
▁opposite	-10210
▁outlined	-10211
▁oversees	-10212
▁pandemic	-10213
▁payrolls	-10214
▁petition	-10215
▁physique	-10216
▁planting	-10217
▁pleasure	-10218
▁plunging	-10219
▁politics	-10220
▁postings	-10221
▁precious	-10222
▁printing	-10223
▁proposed	-10224
▁proposes	-10225
▁punitive	-10226
▁reckoned	-10227
▁reenroll	-10228
▁refusing	-10229
▁relating	-10230
▁relative	-10231
▁repealed	-10232
▁repeated	-10233
▁shoulder	-10234
▁shouting	-10235
▁sickness	-10236
▁signages	-10237
▁sleeping	-10238
▁speakers	-10239
▁spectrum	-10240
▁spitting	-10241
▁sponsors	-10242
▁spurious	-10243
▁stoppage	-10244
▁subscrip	-10245
▁supplies	-10246
▁switched	-10247
▁terminal	-10248
▁thorough	-10249
▁trainers	-10250
▁triumphs	-10251
▁typhoons	-10252
▁ultimate	-10253
▁underpin	-10254
▁unfolded	-10255
▁verbally	-10256
▁violates	-10257
▁vouchers	-10258
▁watchers	-10259
▁webinars	-10260
▁whenever	-10261
▁writings	-10262
ADJECTIVAL	-10263
Accountant	-10264
Activities	-10265
Attendance	-10266
CURRICULAR	-10267
CURRICULUM	-10268
Collection	-10269
Complaints	-10270
Conference	-10271
DISASTROUS	-10272
ENROLLMENT	-10273
GOVERNMENT	-10274
GRADUATION	-10275
GUIDELINES	-10276
Grievances	-10277
INCOMPLETE	-10278
Incomplete	-10279
Individual	-10280
Management	-10281
PERCENTAGE	-10282
PROCEDURES	-10283
Periodical	-10284
Prevention	-10285
Procedures	-10286
Provincial	-10287
RESPECTIVE	-10288
Recognized	-10289
Resolution	-10290
Revalidate	-10291
SUSPENSION	-10292
Statistics	-10293
Suspension	-10294
VOLLEYBALL	-10295
WITHDRAWAL	-10296
Withdrawal	-10297
accomplish	-10298
accordance	-10299
activities	-10300
additional	-10301
affordable	-10302
apprentice	-10303
ascendancy	-10304
assaulting	-10305
assistance	-10306
atmosphere	-10307
attendance	-10308
benefactor	-10309
commitment	-10310
concerning	-10311
conducting	-10312
conspiracy	-10313
curriculum	-10314
democratic	-10315
designated	-10316
disqualify	-10317
disturbing	-10318
experience	-10319
facilities	-10320
fortuitous	-10321
harassment	-10322
indication	-10323
inspection	-10324
instructor	-10325
management	-10326
mismatched	-10327
objectives	-10328
obligation	-10329
operations	-10330
ordinarily	-10331
pertaining	-10332
predicting	-10333
preventing	-10334
profession	-10335
protection	-10336
provincial	-10337
provisions	-10338
reasonable	-10339
respecting	-10340
safeguards	-10341
strengthen	-10342
structural	-10343
technology	-10344
▁AGITATING	-10345
▁Agreement	-10346
▁Attacking	-10347
▁Authority	-10348
▁CLEARANCE	-10349
▁CUSTODIAN	-10350
▁Candidacy	-10351
▁Committed	-10352
▁Councilor	-10353
▁Custodian	-10354
▁Defensive	-10355
▁Designate	-10356
▁Dormitory	-10357
▁EQUIPMENT	-10358
▁Efficient	-10359
▁Enclosing	-10360
▁Examinees	-10361
▁Exclusion	-10362
▁Exemplary	-10363
▁Expulsion	-10364
▁Extortion	-10365
▁FILIPINOS	-10366
▁Falsified	-10367
▁Formation	-10368
▁Formulate	-10369
▁GRADUATES	-10370
▁Governing	-10371
▁Honorable	-10372
▁ISABELITA	-10373
▁Imprudent	-10374
▁Inventory	-10375
▁Librarian	-10376
▁Loitering	-10377
▁MARIANITA	-10378
▁Magazines	-10379
▁Meanwhile	-10380
▁Notarized	-10381
▁Ordinance	-10382
▁Otherwise	-10383
▁Outsiders	-10384
▁Overnight	-10385
▁POLESTICO	-10386
▁PRESIDENT	-10387
▁PUBLICITY	-10388
▁Paragraph	-10389
▁Personnel	-10390
▁Photocopy	-10391
▁Pompadour	-10392
▁Practical	-10393
▁Primarily	-10394
▁Principal	-10395
▁Procedure	-10396
▁REGISTRAR	-10397
▁SANCTIONS	-10398
▁SUSPENDED	-10399
▁Sanctions	-10400
▁Saturdays	-10401
▁Standards	-10402
▁Strategic	-10403
▁Subsidies	-10404
▁VANDALISM	-10405
▁Violating	-10406
▁Violation	-10407
▁according	-10408
▁adjusting	-10409
▁adversely	-10410
▁alcoholic	-10411
▁arguments	-10412
▁ascertain	-10413
▁associate	-10414
▁attaining	-10415
▁attention	-10416
▁attesting	-10417
▁authorize	-10418
▁automated	-10419
▁beverages	-10420
▁borrowing	-10421
▁campaigns	-10422
▁circulars	-10423
▁clientele	-10424
▁concerted	-10425
▁conferred	-10426
▁confident	-10427
▁confirmed	-10428
▁confusion	-10429
▁considers	-10430
▁construal	-10431
▁consuming	-10432
▁contracts	-10433
▁convicted	-10434
▁corridors	-10435
▁counselor	-10436
▁cultivate	-10437
▁curricula	-10438
▁custodian	-10439
▁dedicated	-10440
▁deserving	-10441
▁designate	-10442
▁determine	-10443
▁dignified	-10444
▁directing	-10445
▁discharge	-10446
▁discounts	-10447
▁elsewhere	-10448
▁emotional	-10449
▁endeavors	-10450
▁enhancing	-10451
▁enlighten	-10452
▁enrolling	-10453
▁estimates	-10454
▁etiquette	-10455
▁execution	-10456
▁expensive	-10457
▁exploring	-10458
▁expounded	-10459
▁falsified	-10460
▁favorable	-10461
▁formulate	-10462
▁fostering	-10463
▁furniture	-10464
▁gangsters	-10465
▁gathering	-10466
▁gentlemen	-10467
▁gossiping	-10468
▁graphical	-10469
▁guarantee	-10470
▁guideline	-10471
▁hairstyle	-10472
▁heartfelt	-10473
▁honoraria	-10474
▁ignorance	-10475
▁important	-10476
▁incidents	-10477
▁inclusion	-10478
▁inclusive	-10479
▁incorrect	-10480
▁initially	-10481
▁institute	-10482
▁insulting	-10483
▁intellect	-10484
▁liability	-10485
▁littering	-10486
▁loitering	-10487
▁marijuana	-10488
▁maternity	-10489
▁misplaced	-10490
▁mongering	-10491
▁necessity	-10492
▁notarized	-10493
▁nurturing	-10494
▁objective	-10495
▁pamphlets	-10496
▁patronage	-10497
▁penalized	-10498
▁placement	-10499
▁plantilla	-10500
▁possessed	-10501
▁preferred	-10502
▁president	-10503
▁presiding	-10504
▁primarily	-10505
▁promoting	-10506
▁provision	-10507
▁qualifies	-10508
▁questions	-10509
▁quietness	-10510
▁recipient	-10511
▁reconcili	-10512
▁recording	-10513
▁recurring	-10514
▁referring	-10515
▁reimburse	-10516
▁releasing	-10517
▁religious	-10518
▁rendition	-10519
▁renewable	-10520
▁reputable	-10521
▁requisite	-10522
▁residence	-10523
▁resolving	-10524
▁returning	-10525
▁schedules	-10526
▁searching	-10527
▁signature	-10528
▁societies	-10529
▁solutions	-10530
▁something	-10531
▁spaghetti	-10532
▁sportsmen	-10533
▁stairways	-10534
▁struggled	-10535
▁studentry	-10536
▁suggested	-10537
▁summarily	-10538
▁symbolize	-10539
▁telephone	-10540
▁therefore	-10541
▁trainings	-10542
▁treatment	-10543
▁trimester	-10544
▁turpitude	-10545
▁tutorship	-10546
▁underline	-10547
▁unethical	-10548
▁unwilling	-10549
▁validates	-10550
▁whistling	-10551
▁wholesome	-10552
▁workplace	-10553
Commissions	-10554
Coordinator	-10555
Counselling	-10556
Definitions	-10557
Development	-10558
Dormitories	-10559
Outstanding	-10560
Promulgated	-10561
SCHOLARSHIP	-10562
Typewriting	-10563
accordingly	-10564
advisorship	-10565
authorities	-10566
contributed	-10567
demonstrate	-10568
discouraged	-10569
disposition	-10570
distinguish	-10571
downloading	-10572
endorsement	-10573
enforcement	-10574
essionaires	-10575
illustrated	-10576
immediately	-10577
improvement	-10578
informative	-10579
instruction	-10580
legislative	-10581
maintenance	-10582
misdemeanor	-10583
naturalized	-10584
obligations	-10585
participate	-10586
performance	-10587
permanently	-10588
predecessor	-10589
preparation	-10590
realization	-10591
recommended	-10592
requirement	-10593
reservation	-10594
responsible	-10595
temporarily	-10596
unnecessary	-10597
utilization	-10598
▁ABOMINABLE	-10599
▁ABSOLUTELY	-10600
▁ASSAULTING	-10601
▁ATTENDANCE	-10602
▁Administer	-10603
▁Admissions	-10604
▁Agreements	-10605
▁Applicants	-10606
▁Assaulting	-10607
▁BASKETBALL	-10608
▁Basketball	-10609
▁Boisterous	-10610
▁CATEGORIES	-10611
▁COMMISSION	-10612
▁COMPLIANCE	-10613
▁CURRICULAR	-10614
▁Classrooms	-10615
▁Cybercrime	-10616
▁DESTROYING	-10617
▁DIRECTIVES	-10618
▁DISHONESTY	-10619
▁DRUNKENESS	-10620
▁Defamation	-10621
▁Deliberate	-10622
▁Discipline	-10623
▁Dishonesty	-10624
▁Disrespect	-10625
▁ELECTRONIC	-10626
▁Falsifying	-10627
▁Federation	-10628
▁GUIDELINES	-10629
▁HINLAYAGAN	-10630
▁Inspectors	-10631
▁Newspapers	-10632
▁Ordinances	-10633
▁Organizing	-10634
▁PHYSICALLY	-10635
▁PRESIDENTS	-10636
▁PROCESSING	-10637
▁PROHIBITED	-10638
▁PROPERTIES	-10639
▁PROSPECTUS	-10640
▁PROVINCIAL	-10641
▁PUNISHABLE	-10642
▁Parenthood	-10643
▁Performing	-10644
▁Periodical	-10645
▁Permission	-10646
▁Physicians	-10647
▁SCHOLASTIC	-10648
▁SUBSEQUENT	-10649
▁SUSPENSION	-10650
▁Settlement	-10651
▁Sleeveless	-10652
▁Statistics	-10653
▁Technician	-10654
▁Transferee	-10655
▁VICTORIANO	-10656
▁Vocational	-10657
▁WITHDRAWAL	-10658
▁Wednesdays	-10659
▁absolutely	-10660
▁acceptable	-10661
▁accessibly	-10662
▁accountant	-10663
▁admiration	-10664
▁advisories	-10665
▁agreements	-10666
▁allotments	-10667
▁alteration	-10668
▁amendments	-10669
▁appearance	-10670
▁apprentice	-10671
▁assumption	-10672
▁basketball	-10673
▁belongings	-10674
▁benefiting	-10675
▁betterment	-10676
▁boisterous	-10677
▁calamities	-10678
▁capacities	-10679
▁catcalling	-10680
▁classified	-10681
▁commitment	-10682
▁committing	-10683
▁comparable	-10684
▁components	-10685
▁conclusion	-10686
▁conferring	-10687
▁connection	-10688
▁consistent	-10689
▁containing	-10690
▁conviction	-10691
▁creativity	-10692
▁curricular	-10693
▁deliberate	-10694
▁dependency	-10695
▁depository	-10696
▁derogatory	-10697
▁directives	-10698
▁dispensing	-10699
▁distorting	-10700
▁downloaded	-10701
▁efficiency	-10702
▁emphasized	-10703
▁enthusiasm	-10704
▁enumerated	-10705
▁especially	-10706
▁exemptions	-10707
▁exigencies	-10708
▁facilitate	-10709
▁faithfully	-10710
▁fatherhood	-10711
▁frequently	-10712
▁historical	-10713
▁identified	-10714
▁immorality	-10715
▁incentives	-10716
▁inflicting	-10717
▁infraction	-10718
▁initiation	-10719
▁initiative	-10720
▁inspection	-10721
▁insurgency	-10722
▁intentions	-10723
▁interviews	-10724
▁invaluable	-10725
▁invectives	-10726
▁legitimate	-10727
▁manuscript	-10728
▁memorandum	-10729
▁motherhood	-10730
▁newsletter	-10731
▁nutritious	-10732
▁ordinances	-10733
▁ordinarily	-10734
▁percentage	-10735
▁population	-10736
▁positioned	-10737
▁possessing	-10738
▁potentials	-10739
▁presbyters	-10740
▁presenting	-10741
▁prevailing	-10742
▁privileged	-10743
▁proclaimed	-10744
▁promulgate	-10745
▁publishing	-10746
▁punishment	-10747
▁redesigned	-10748
▁reissuance	-10749
▁repairable	-10750
▁restrained	-10751
▁sanctioned	-10752
▁scandalous	-10753
▁simulation	-10754
▁sleeveless	-10755
▁specialist	-10756
▁stipulated	-10757
▁submitting	-10758
▁subversion	-10759
▁successive	-10760
▁supersedes	-10761
▁supervised	-10762
▁supervises	-10763
▁transacted	-10764
▁transcript	-10765
▁unbecoming	-10766
▁undergoing	-10767
▁undershirt	-10768
▁understood	-10769
▁undertaken	-10770
▁uniformity	-10771
▁usurpation	-10772
▁validating	-10773
▁vicinities	-10774
Additionally	-10775
Announcement	-10776
Cancellation	-10777
Disqualified	-10778
EXAMINATIONS	-10779
Examinations	-10780
IMPRISONMENT	-10781
Municipality	-10782
Registration	-10783
Satisfactory	-10784
accomplished	-10785
alternatives	-10786
communicable	-10787
compensation	-10788
competencies	-10789
contributing	-10790
departmental	-10791
disturbances	-10792
fessionalism	-10793
instructions	-10794
instrumental	-10795
interruption	-10796
investigated	-10797
organization	-10798
perspectives	-10799
presentation	-10800
productivity	-10801
reemployment	-10802
relationship	-10803
reproduction	-10804
surroundings	-10805
unrestrained	-10806
▁APPLICATION	-10807
▁ASSOCIATION	-10808
▁CIRCULATION	-10809
▁COMPOSITION	-10810
▁COORDINATOR	-10811
▁CREDENTIALS	-10812
▁Circulation	-10813
▁Credentials	-10814
▁DISCREPANCY	-10815
▁DOCUMENTARY	-10816
▁Declaration	-10817
▁Departments	-10818
▁EFFECTIVITY	-10819
▁Equivalency	-10820
▁INFRACTIONS	-10821
▁INSTALLMENT	-10822
▁Immigration	-10823
▁Instigating	-10824
▁Instructors	-10825
▁Legislative	-10826
▁MAINTENANCE	-10827
▁Malfunction	-10828
▁NATURALIZED	-10829
▁Periodicals	-10830
▁Preliminary	-10831
▁Proficiency	-10832
▁RESPONSIBIL	-10833
▁Regulations	-10834
▁Resolutions	-10835
▁Responsible	-10836
▁THREATENING	-10837
▁Threatening	-10838
▁accommodate	-10839
▁affirmation	-10840
▁agriculture	-10841
▁alternative	-10842
▁arrangement	-10843
▁assessments	-10844
▁association	-10845
▁authorizing	-10846
▁broadcasted	-10847
▁collaterals	-10848
▁communities	-10849
▁composition	-10850
▁connections	-10851
▁consistency	-10852
▁continuance	-10853
▁contractors	-10854
▁contractual	-10855
▁convenience	-10856
▁cooperation	-10857
▁coordinates	-10858
▁coordinator	-10859
▁counselling	-10860
▁declaration	-10861
▁definitions	-10862
▁designation	-10863
▁determining	-10864
▁discharging	-10865
▁discourtesy	-10866
▁disgraceful	-10867
▁disposition	-10868
▁distinction	-10869
▁distraction	-10870
▁drunkenness	-10871
▁efficiently	-10872
▁eligibility	-10873
▁emphasizing	-10874
▁encompasses	-10875
▁equirements	-10876
▁exceptional	-10877
▁facilitated	-10878
▁familiarize	-10879
▁hooliganism	-10880
▁informative	-10881
▁inspiration	-10882
▁instigating	-10883
▁interaction	-10884
▁justifiable	-10885
▁liabilities	-10886
▁ministerial	-10887
▁misconducts	-10888
▁necessarily	-10889
▁officiating	-10890
▁orderliness	-10891
▁periodicals	-10892
▁personifies	-10893
▁photocopies	-10894
▁preliminary	-10895
▁readability	-10896
▁realization	-10897
▁recurrences	-10898
▁replacement	-10899
▁reservation	-10900
▁resolutions	-10901
▁scholastics	-10902
▁secretariat	-10903
▁situational	-10904
▁socializing	-10905
▁supervising	-10906
▁sustainable	-10907
▁synchronous	-10908
▁threatening	-10909
▁transferees	-10910
▁transferred	-10911
▁undertaking	-10912
▁undesirable	-10913
▁visitations	-10914
Accreditation	-10915
Administrator	-10916
MISCELLANEOUS	-10917
announcements	-10918
collaboration	-10919
communication	-10920
comprehensive	-10921
disbursements	-10922
documentation	-10923
paraphernalia	-10924
personalities	-10925
sensibilities	-10926
▁Abbreviation	-10927
▁CERTIFICATES	-10928
▁CONSEQUENCES	-10929
▁Collectively	-10930
▁Constitution	-10931
▁Conversation	-10932
▁DEPARTMENTAL	-10933
▁DISTURBANCES	-10934
▁Deliberation	-10935
▁Dictionaries	-10936
▁EXAMINATIONS	-10937
▁Examinations	-10938
▁INTIMIDATING	-10939
▁Implementing	-10940
▁LABORATORIES	-10941
▁Misrepresent	-10942
▁Prostitution	-10943
▁Reservations	-10944
▁SOLICITATION	-10945
▁___________.	-10946
▁accomplished	-10947
▁agricultural	-10948
▁asynchronous	-10949
▁cancellation	-10950
▁commensurate	-10951
▁communicates	-10952
▁concurrently	-10953
▁conditioners	-10954
▁confirmation	-10955
▁consequences	-10956
▁consolidated	-10957
▁constituents	-10958
▁constituting	-10959
▁construction	-10960
▁deliberation	-10961
▁dispositions	-10962
▁disqualified	-10963
▁disregarding	-10964
▁distributing	-10965
▁distribution	-10966
▁disturbances	-10967
▁facilitating	-10968
▁facilitators	-10969
▁implementing	-10970
▁implications	-10971
▁imprisonment	-10972
▁inadvertence	-10973
▁inconsistent	-10974
▁incorporates	-10975
▁interrupting	-10976
▁intervention	-10977
▁intoxicating	-10978
▁journalizing	-10979
▁municipality	-10980
▁participated	-10981
▁participates	-10982
▁performances	-10983
▁pornographic	-10984
▁preponderant	-10985
▁prerequisite	-10986
▁preventively	-10987
▁reassessment	-10988
▁rehabilitate	-10989
▁remuneration	-10990
▁representing	-10991
▁reservations	-10992
▁satisfactory	-10993
▁scandalously	-10994
▁successfully	-10995
▁surroundings	-10996
▁thoughtfully	-10997
▁undertakings	-10998
▁undesignated	-10999
▁volunteering	-11000
▁wastebaskets	-11001
ACCOUNTABILITY	-11002
Administrative	-11003
Classification	-11004
ORGANIZATIONAL	-11005
Unsatisfactory	-11006
accountability	-11007
administration	-11008
administrators	-11009
implementation	-11010
recommendation	-11011
representative	-11012
responsibility	-11013
▁Certification	-11014
▁Contributions	-11015
▁Corresponding	-11016
▁Disrespecting	-11017
▁Dissemination	-11018
▁Encyclopedias	-11019
▁ORGANIZATIONS	-11020
▁Presentations	-11021
▁abbreviations	-11022
▁belongingness	-11023
▁clarification	-11024
▁collaboration	-11025
▁comprehension	-11026
▁comprehensive	-11027
▁consolidation	-11028
▁determination	-11029
▁discretionary	-11030
▁enlightenment	-11031
▁establishment	-11032
▁interventions	-11033
▁justification	-11034
▁pronouncement	-11035
▁quadruplicate	-11036
▁qualification	-11037
▁strategically	-11038
▁subscriptions	-11039
collegeofficial	-11040
internalization	-11041
professionalism	-11042
representations	-11043
▁Discriminating	-11044
▁agriculturally	-11045
▁alphabetically	-11046
▁apprenticeship	-11047
▁certifications	-11048
▁choreographers	-11049
▁justifications	-11050
▁representation	-11051
▁sophistication	-11052
▁Representatives	-11053
▁accomplishments	-11054
▁concessionaires	-11055
▁extracurricular	-11056
▁reconciliations	-11057
▁representations	-11058
▁teleconferences	-11059
:/	-11060
AA	-11061
AE	-11062
AF	-11063
AI	-11064
AJ	-11065
AO	-11066
AU	-11067
AX	-11068
Ab	-11069
Af	-11070
Ag	-11071
Al	-11072
Ap	-11073
Av	-11074
Aw	-11075
BC	-11076
BJ	-11077
BU	-11078
Ba	-11079
Bi	-11080
Bl	-11081
Br	-11082
Bu	-11083
By	-11084
CC	-11085
CM	-11086
CP	-11087
CS	-11088
CW	-11089
CY	-11090
Ca	-11091
Ce	-11092
Ci	-11093
Co	-11094
Cr	-11095
Cs	-11096
Cu	-11097
Cy	-11098
DB	-11099
DC	-11100
DD	-11101
DG	-11102
DI	-11103
DJ	-11104
DL	-11105
DM	-11106
DO	-11107
DY	-11108
Da	-11109
Di	-11110
Do	-11111
Dr	-11112
Ds	-11113
Du	-11114
EA	-11115
EG	-11116
EH	-11117
EI	-11118
EQ	-11119
EV	-11120
EW	-11121
EY	-11122
Ea	-11123
Ef	-11124
Ei	-11125
El	-11126
Eq	-11127
Es	-11128
Et	-11129
Ev	-11130
FB	-11131
FH	-11132
FI	-11133
FL	-11134
FR	-11135
FS	-11136
FT	-11137
FU	-11138
Fa	-11139
Fe	-11140
Fo	-11141
Fr	-11142
Fu	-11143
GA	-11144
GC	-11145
GD	-11146
GH	-11147
GI	-11148
GL	-11149
GO	-11150
GS	-11151
GW	-11152
GY	-11153
Ga	-11154
Ge	-11155
Gi	-11156
Gu	-11157
Gy	-11158
HA	-11159
HD	-11160
HO	-11161
HP	-11162
Ha	-11163
Hi	-11164
Ho	-11165
Hu	-11166
IB	-11167
IF	-11168
Ic	-11169
Id	-11170
Ii	-11171
Il	-11172
Iv	-11173
JD	-11174
JE	-11175
JO	-11176
JR	-11177
JU	-11178
Ja	-11179
Jo	-11180
Jr	-11181
Ju	-11182
KE	-11183
KI	-11184
KR	-11185
Ke	-11186
Kn	-11187
LA	-11188
LC	-11189
LD	-11190
LF	-11191
LG	-11192
LL	-11193
LM	-11194
LP	-11195
LS	-11196
LT	-11197
LU	-11198
LV	-11199
La	-11200
MB	-11201
ME	-11202
MI	-11203
MN	-11204
MU	-11205
Me	-11206
Mi	-11207
Mo	-11208
Mr	-11209
Mu	-11210
NA	-11211
NB	-11212
NF	-11213
NK	-11214
NL	-11215
NM	-11216
NR	-11217
NS	-11218
NT	-11219
NU	-11220
NY	-11221
NZ	-11222
Na	-11223
Ne	-11224
Nu	-11225
OB	-11226
OC	-11227
OE	-11228
OH	-11229
OI	-11230
OJ	-11231
OK	-11232
OM	-11233
OU	-11234
OV	-11235
OW	-11236
OX	-11237
OY	-11238
Ob	-11239
Oc	-11240
Of	-11241
Om	-11242
Op	-11243
Or	-11244
Ot	-11245
Ou	-11246
Ov	-11247
Ow	-11248
PB	-11249
PC	-11250
PI	-11251
PL	-11252
PM	-11253
PO	-11254
PP	-11255
PS	-11256
PU	-11257
PY	-11258
Pa	-11259
Pe	-11260
Pi	-11261
Pl	-11262
Pr	-11263
Ps	-11264
Pu	-11265
QA	-11266
QT	-11267
RB	-11268
RC	-11269
RF	-11270
RG	-11271
RH	-11272
RK	-11273
RL	-11274
RM	-11275
RN	-11276
RR	-11277
RS	-11278
RT	-11279
RV	-11280
RY	-11281
Ra	-11282
Ri	-11283
Ro	-11284
Ru	-11285
SD	-11286
SF	-11287
SH	-11288
SI	-11289
SL	-11290
SM	-11291
SP	-11292
SR	-11293
SY	-11294
Sa	-11295
Sc	-11296
Se	-11297
Sh	-11298
Si	-11299
Sk	-11300
Sl	-11301
Sm	-11302
So	-11303
Sp	-11304
Su	-11305
Sw	-11306
Sy	-11307
TB	-11308
TD	-11309
TL	-11310
TM	-11311
TP	-11312
TT	-11313
TU	-11314
TV	-11315
Ta	-11316
Ti	-11317
Tu	-11318
Tw	-11319
Ty	-11320
UE	-11321
UI	-11322
Up	-11323
Us	-11324
Ut	-11325
VA	-11326
VE	-11327
VI	-11328
VP	-11329
Va	-11330
Ve	-11331
Vi	-11332
Vo	-11333
WD	-11334
WE	-11335
WH	-11336
WI	-11337
WO	-11338
WT	-11339
Wa	-11340
We	-11341
Wh	-11342
Wi	-11343
Wo	-11344
Wr	-11345
XA	-11346
XC	-11347
XI	-11348
XP	-11349
XU	-11350
YA	-11351
YB	-11352
YE	-11353
YI	-11354
YM	-11355
YR	-11356
Ye	-11357
Yo	-11358
Yr	-11359
ZA	-11360
ZE	-11361
ZI	-11362
Zo	-11363
_.	-11364
_`	-11365
af	-11366
ai	-11367
ba	-11368
bb	-11369
bi	-11370
bj	-11371
bm	-11372
br	-11373
bt	-11374
bu	-11375
bv	-11376
cc	-11377
cn	-11378
cq	-11379
ct	-11380
cu	-11381
cy	-11382
da	-11383
db	-11384
dc	-11385
dd	-11386
df	-11387
dg	-11388
dh	-11389
di	-11390
dj	-11391
dl	-11392
dn	-11393
dr	-11394
ds	-11395
dt	-11396
dv	-11397
dy	-11398
eh	-11399
ei	-11400
ej	-11401
ek	-11402
eo	-11403
eq	-11404
ev	-11405
fa	-11406
fo	-11407
fu	-11408
ga	-11409
gd	-11410
gf	-11411
gg	-11412
gl	-11413
gm	-11414
gt	-11415
gy	-11416
hD	-11417
hP	-11418
ha	-11419
hb	-11420
hd	-11421
hf	-11422
hh	-11423
hl	-11424
hm	-11425
hn	-11426
ho	-11427
hq	-11428
hr	-11429
hs	-11430
ht	-11431
iF	-11432
iI	-11433
iM	-11434
ik	-11435
iq	-11436
iu	-11437
ja	-11438
je	-11439
ju	-11440
ka	-11441
kf	-11442
kg	-11443
ki	-11444
kk	-11445
kl	-11446
kn	-11447
ko	-11448
kp	-11449
ku	-11450
lH	-11451
lS	-11452
la	-11453
lc	-11454
lf	-11455
lg	-11456
lk	-11457
lm	-11458
ln	-11459
lr	-11460
ls	-11461
lt	-11462
lv	-11463
lw	-11464
mb	-11465
mf	-11466
mi	-11467
mm	-11468
mn	-11469
mp	-11470
mu	-11471
my	-11472
nS	-11473
nb	-11474
nc	-11475
ne	-11476
nf	-11477
ng	-11478
nh	-11479
nj	-11480
nk	-11481
nl	-11482
nm	-11483
nn	-11484
np	-11485
nq	-11486
nr	-11487
ns	-11488
nt	-11489
nu	-11490
nv	-11491
nw	-11492
ny	-11493
nz	-11494
oa	-11495
oe	-11496
oh	-11497
oi	-11498
oj	-11499
oo	-11500
oq	-11501
ov	-11502
ox	-11503
oy	-11504
pE	-11505
pc	-11506
pi	-11507
pu	-11508
py	-11509
rb	-11510
rc	-11511
rf	-11512
rg	-11513
rh	-11514
rk	-11515
rl	-11516
rm	-11517
rn	-11518
rp	-11519
rr	-11520
rs	-11521
rt	-11522
rv	-11523
rw	-11524
sb	-11525
sc	-11526
sd	-11527
sf	-11528
sg	-11529
sk	-11530
sl	-11531
sm	-11532
sn	-11533
sq	-11534
sr	-11535
sw	-11536
ta	-11537
tb	-11538
tf	-11539
tg	-11540
tl	-11541
tm	-11542
tn	-11543
tp	-11544
ua	-11545
uf	-11546
ui	-11547
uo	-11548
ux	-11549
vI	-11550
va	-11551
vo	-11552
vu	-11553
wf	-11554
wi	-11555
wl	-11556
wm	-11557
wr	-11558
ws	-11559
wt	-11560
xa	-11561
xc	-11562
xe	-11563
xi	-11564
xp	-11565
xt	-11566
xu	-11567
yM	-11568
ya	-11569
yb	-11570
ye	-11571
yi	-11572
yl	-11573
yo	-11574
yr	-11575
yt	-11576
yw	-11577
yz	-11578
za	-11579
zi	-11580
zz	-11581
ÑA	-11582
▁X	-11583
▁_	-11584
▁q	-11585
---	-11586
ABI	-11587
ACC	-11588
ACI	-11589
ACU	-11590
ADE	-11591
ADJ	-11592
ADL	-11593
ADU	-11594
AEL	-11595
AEd	-11596
AFE	-11597
ALE	-11598
ALT	-11599
ALU	-11600
AMB	-11601
AMP	-11602
ANA	-11603
ANE	-11604
ANI	-11605
ANK	-11606
ANO	-11607
ANU	-11608
APP	-11609
ARA	-11610
ARC	-11611
ARI	-11612
ARL	-11613
ART	-11614
AST	-11615
AYA	-11616
Adm	-11617
Are	-11618
Asi	-11619
BAD	-11620
BAL	-11621
BAN	-11622
BEI	-11623
BIG	-11624
BLE	-11625
BOR	-11626
BRE	-11627
BSC	-11628
BSO	-11629
BUR	-11630
Bac	-11631
Ban	-11632
Bar	-11633
Bas	-11634
Bat	-11635
Bay	-11636
Ben	-11637
Bes	-11638
Bid	-11639
Bir	-11640
Blo	-11641
Bon	-11642
Bor	-11643
Bri	-11644
Bro	-11645
Bul	-11646
CAD	-11647
CAL	-11648
CED	-11649
CEN	-11650
CEP	-11651
CER	-11652
CHE	-11653
CHO	-11654
CIN	-11655
CIS	-11656
CLE	-11657
COL	-11658
COM	-11659
COP	-11660
CTI	-11661
CUR	-11662
Caj	-11663
Cal	-11664
Can	-11665
Car	-11666
Cas	-11667
Cat	-11668
Cen	-11669
Cer	-11670
Che	-11671
Cit	-11672
Cle	-11673
Col	-11674
Com	-11675
Cop	-11676
Cor	-11677
Cou	-11678
Cre	-11679
Cro	-11680
Cul	-11681
Cur	-11682
DAD	-11683
DAL	-11684
DAN	-11685
DAR	-11686
DAY	-11687
DED	-11688
DEN	-11689
DGE	-11690
DIS	-11691
DIT	-11692
DOL	-11693
DUL	-11694
DUR	-11695
Dam	-11696
Dan	-11697
Dat	-11698
Dec	-11699
Ded	-11700
Dem	-11701
Des	-11702
Dic	-11703
Dip	-11704
Dor	-11705
Dre	-11706
Dro	-11707
Dur	-11708
EAC	-11709
EAD	-11710
EAL	-11711
EAN	-11712
EAS	-11713
ECE	-11714
ECH	-11715
ECI	-11716
ECO	-11717
ECR	-11718
ECS	-11719
ECT	-11720
ECU	-11721
EED	-11722
EEd	-11723
EGU	-11724
ELA	-11725
ELI	-11726
ELL	-11727
ELV	-11728
EMB	-11729
EMI	-11730
ENA	-11731
ENC	-11732
ENE	-11733
ENI	-11734
ENR	-11735
EPS	-11736
EQU	-11737
ERA	-11738
ERE	-11739
ERH	-11740
ERI	-11741
ERM	-11742
ERT	-11743
ESD	-11744
ESE	-11745
ESI	-11746
ESP	-11747
ETB	-11748
ETI	-11749
ETY	-11750
Ear	-11751
Eat	-11752
Eff	-11753
Eit	-11754
Ele	-11755
Est	-11756
Exp	-11757
FAC	-11758
FAI	-11759
FAR	-11760
FEC	-11761
FEN	-11762
FIN	-11763
FIT	-11764
FOR	-11765
FRO	-11766
FTE	-11767
FUN	-11768
Fac	-11769
Fal	-11770
Fam	-11771
Fed	-11772
Fem	-11773
Fil	-11774
Fin	-11775
Fir	-11776
Fit	-11777
Fon	-11778
Fou	-11779
Fre	-11780
GAL	-11781
GAR	-11782
GAY	-11783
GEN	-11784
GHE	-11785
GIE	-11786
GIN	-11787
GIT	-11788
GLE	-11789
GON	-11790
GRE	-11791
GUs	-11792
Gam	-11793
Gar	-11794
Gen	-11795
Gon	-11796
Gri	-11797
Gro	-11798
Gym	-11799
HAB	-11800
HAL	-11801
HAN	-11802
HAT	-11803
HAV	-11804
HAZ	-11805
HEE	-11806
HES	-11807
HIB	-11808
HIC	-11809
HIN	-11810
HIT	-11811
HOL	-11812
HOR	-11813
HRE	-11814
HUS	-11815
Hac	-11816
Hal	-11817
Har	-11818
Has	-11819
Hen	-11820
Hig	-11821
His	-11822
Hol	-11823
Hom	-11824
Hon	-11825
Hou	-11826
How	-11827
Hum	-11828
IBR	-11829
ICA	-11830
ICE	-11831
ICI	-11832
ICT	-11833
ICU	-11834
ICY	-11835
IED	-11836
IEL	-11837
IEN	-11838
IFA	-11839
IFE	-11840
IGH	-11841
ILE	-11842
ILI	-11843
IMU	-11844
INI	-11845
INL	-11846
INS	-11847
INT	-11848
IOR	-11849
IPL	-11850
IRC	-11851
IRM	-11852
ISB	-11853
ISC	-11854
ISI	-11855
ISS	-11856
ITI	-11857
ITT	-11858
Ill	-11859
Inc	-11860
JUD	-11861
Jan	-11862
Jou	-11863
Jud	-11864
Jul	-11865
Jun	-11866
Jus	-11867
KET	-11868
KIL	-11869
KIN	-11870
Key	-11871
LAL	-11872
LAM	-11873
LAR	-11874
LAS	-11875
LED	-11876
LEG	-11877
LEN	-11878
LES	-11879
LEV	-11880
LEY	-11881
LIN	-11882
LIT	-11883
LLO	-11884
LOG	-11885
LOM	-11886
LOP	-11887
LOS	-11888
LSO	-11889
LTI	-11890
LUC	-11891
Lan	-11892
Lat	-11893
Lec	-11894
Len	-11895
Lia	-11896
Lib	-11897
Lic	-11898
Lis	-11899
Lit	-11900
Loc	-11901
Lon	-11902
Lou	-11903
MAN	-11904
MAR	-11905
MBO	-11906
MEN	-11907
MER	-11908
MES	-11909
MIC	-11910
MOD	-11911
MON	-11912
MOR	-11913
MOs	-11914
MPL	-11915
MPO	-11916
MPR	-11917
MPU	-11918
MUN	-11919
Mag	-11920
Mal	-11921
Mat	-11922
Med	-11923
Mem	-11924
Mid	-11925
Mis	-11926
Mon	-11927
Mor	-11928
Mun	-11929
NAN	-11930
NCE	-11931
NDA	-11932
NDE	-11933
NDS	-11934
NEE	-11935
NER	-11936
NES	-11937
NIC	-11938
NIS	-11939
NIT	-11940
NIZ	-11941
NNN	-11942
NOL	-11943
NON	-11944
NST	-11945
NTI	-11946
NTR	-11947
Nam	-11948
Nat	-11949
Nom	-11950
Nur	-11951
OAD	-11952
OAN	-11953
OCI	-11954
ODI	-11955
OER	-11956
OID	-11957
OKS	-11958
OLA	-11959
OLO	-11960
OLU	-11961
OMP	-11962
ONA	-11963
ONC	-11964
ONE	-11965
ONF	-11966
ONI	-11967
ONM	-11968
ONO	-11969
ONT	-11970
OON	-11971
OOR	-11972
OPH	-11973
OPO	-11974
ORA	-11975
ORD	-11976
ORG	-11977
ORI	-11978
ORT	-11979
ORY	-11980
OSE	-11981
OSI	-11982
OST	-11983
OTI	-11984
OUN	-11985
OUR	-11986
OUS	-11987
PAL	-11988
PAN	-11989
PIN	-11990
PLE	-11991
PLO	-11992
PMS	-11993
PON	-11994
PTI	-11995
Pan	-11996
Par	-11997
Pas	-11998
Pat	-11999
Pic	-12000
Ple	-12001
Pol	-12002
Por	-12003
QAS	-12004
QTE	-12005
QUI	-12006
RAC	-12007
RAD	-12008
RAL	-12009
RAM	-12010
RAN	-12011
RAR	-12012
RAT	-12013
RAW	-12014
RAs	-12015
REA	-12016
RED	-12017
REE	-12018
REF	-12019
REG	-12020
REN	-12021
REP	-12022
REQ	-12023
RET	-12024
RHE	-12025
RIE	-12026
RIM	-12027
RIN	-12028
RIP	-12029
RIT	-12030
RMO	-12031
ROC	-12032
ROL	-12033
RON	-12034
ROP	-12035
ROS	-12036
ROT	-12037
ROs	-12038
RST	-12039
RTI	-12040
RUL	-12041
RUN	-12042
Ran	-12043
Rat	-12044
Ren	-12045
Ric	-12046
Ris	-12047
SAB	-12048
SAF	-12049
SAL	-12050
SAS	-12051
SAU	-12052
SED	-12053
SEN	-12054
SER	-12055
SEd	-12056
SHI	-12057
SIC	-12058
SID	-12059
SIN	-12060
SIT	-12061
SLO	-12062
SOC	-12063
SOL	-12064
SON	-12065
SOR	-12066
SSA	-12067
SSO	-12068
STA	-12069
STE	-12070
STI	-12071
STO	-12072
STR	-12073
STU	-12074
SUB	-12075
Sal	-12076
San	-12077
Sat	-12078
Sch	-12079
Sen	-12080
Ser	-12081
Sex	-12082
Shi	-12083
Sic	-12084
Sig	-12085
Sin	-12086
Sle	-12087
Sol	-12088
Sta	-12089
Stu	-12090
Sum	-12091
Sus	-12092
TAC	-12093
TAL	-12094
TEC	-12095
TED	-12096
TEG	-12097
TEL	-12098
THI	-12099
THO	-12100
TIA	-12101
TIE	-12102
TIF	-12103
TIR	-12104
TIS	-12105
TRA	-12106
TST	-12107
TTY	-12108
TUD	-12109
Tak	-12110
Ter	-12111
Tes	-12112
Tit	-12113
Tor	-12114
Tre	-12115
UAN	-12116
UAQ	-12117
UAR	-12118
UAT	-12119
UBJ	-12120
UBL	-12121
UBS	-12122
UCH	-12123
UCT	-12124
UEN	-12125
UIN	-12126
UIP	-12127
UIR	-12128
UIS	-12129
UIT	-12130
ULE	-12131
ULS	-12132
ULT	-12133
ULU	-12134
UMB	-12135
UMN	-12136
UNC	-12137
UNG	-12138
UNK	-12139
UNT	-12140
URB	-12141
URC	-12142
URE	-12143
URN	-12144
URR	-12145
URT	-12146
USE	-12147
USP	-12148
UTI	-12149
UTP	-12150
Und	-12151
Uns	-12152
Use	-12153
Uti	-12154
VAC	-12155
VAL	-12156
VAN	-12157
VED	-12158
VES	-12159
VIC	-12160
VIS	-12161
VIT	-12162
VOL	-12163
VPA	-12164
Vac	-12165
Val	-12166
Var	-12167
Vib	-12168
Vic	-12169
Vis	-12170
Voc	-12171
Vot	-12172
WAN	-12173
WAR	-12174
WED	-12175
WIN	-12176
WIT	-12177
WOL	-12178
Wal	-12179
Wed	-12180
Wee	-12181
Wel	-12182
Whe	-12183
Whi	-12184
Wis	-12185
Wit	-12186
Wor	-12187
Wre	-12188
XAM	-12189
XCE	-12190
YEE	-12191
YER	-12192
YIN	-12193
You	-12194
ZAL	-12195
ZED	-12196
ZES	-12197
ZIN	-12198
__`	-12199
aba	-12200
abi	-12201
abl	-12202
abo	-12203
abu	-12204
aci	-12205
acq	-12206
acu	-12207
ada	-12208
adg	-12209
adi	-12210
adl	-12211
adn	-12212
ado	-12213
adr	-12214
adu	-12215
adv	-12216
aga	-12217
agg	-12218
agi	-12219
agl	-12220
agn	-12221
agr	-12222
agu	-12223
aig	-12224
ais	-12225
ait	-12226
ala	-12227
alc	-12228
alo	-12229
alt	-12230
alu	-12231
ama	-12232
ami	-12233
amm	-12234
amu	-12235
ani	-12236
anl	-12237
ano	-12238
anp	-12239
anv	-12240
anw	-12241
ape	-12242
ara	-12243
arb	-12244
arc	-12245
arg	-12246
arl	-12247
arn	-12248
asc	-12249
asp	-12250
asu	-12251
atc	-12252
atf	-12253
ati	-12254
atm	-12255
atu	-12256
auc	-12257
aud	-12258
aul	-12259
ava	-12260
awf	-12261
awl	-12262
awn	-12263
aws	-12264
ayM	-12265
aya	-12266
ayb	-12267
bac	-12268
ban	-12269
bar	-12270
bed	-12271
bel	-12272
ben	-12273
bes	-12274
bet	-12275
bid	-12276
bil	-12277
bin	-12278
bit	-12279
ble	-12280
bly	-12281
bon	-12282
bou	-12283
bro	-12284
bse	-12285
bsi	-12286
bst	-12287
bts	-12288
bul	-12289
bur	-12290
cac	-12291
cad	-12292
cal	-12293
cam	-12294
car	-12295
cat	-12296
cca	-12297
cce	-12298
ceb	-12299
cef	-12300
cei	-12301
cel	-12302
cem	-12303
cen	-12304
cha	-12305
che	-12306
ciM	-12307
cil	-12308
cin	-12309
cip	-12310
cis	-12311
ciz	-12312
cks	-12313
cla	-12314
cle	-12315
clo	-12316
cod	-12317
cog	-12318
coh	-12319
cop	-12320
cor	-12321
cou	-12322
cqu	-12323
cra	-12324
cre	-12325
cro	-12326
cti	-12327
ctr	-12328
cts	-12329
ctu	-12330
cul	-12331
cum	-12332
cut	-12333
cyc	-12334
dab	-12335
dac	-12336
dad	-12337
dal	-12338
dan	-12339
dar	-12340
dat	-12341
dec	-12342
ded	-12343
def	-12344
den	-12345
dge	-12346
dhe	-12347
dic	-12348
dig	-12349
dit	-12350
diz	-12351
doc	-12352
dol	-12353
don	-12354
dop	-12355
dow	-12356
dre	-12357
dro	-12358
dul	-12359
dur	-12360
eac	-12361
ead	-12362
eag	-12363
eak	-12364
eam	-12365
eas	-12366
eat	-12367
eca	-12368
ece	-12369
ech	-12370
eci	-12371
ecl	-12372
eco	-12373
ecr	-12374
ect	-12375
edb	-12376
edd	-12377
ede	-12378
edg	-12379
edo	-12380
eel	-12381
eem	-12382
efa	-12383
ego	-12384
egr	-12385
ehe	-12386
eig	-12387
ein	-12388
eit	-12389
eiz	-12390
elc	-12391
eli	-12392
elo	-12393
elr	-12394
els	-12395
ely	-12396
ema	-12397
eme	-12398
ena	-12399
enf	-12400
enh	-12401
eni	-12402
enj	-12403
enl	-12404
enm	-12405
enn	-12406
eno	-12407
enr	-12408
env	-12409
eny	-12410
eon	-12411
eou	-12412
epE	-12413
epo	-12414
epr	-12415
epu	-12416
equ	-12417
era	-12418
erb	-12419
ere	-12420
erf	-12421
erg	-12422
eri	-12423
erl	-12424
ern	-12425
erp	-12426
err	-12427
ery	-12428
esc	-12429
esd	-12430
ese	-12431
esh	-12432
esi	-12433
esk	-12434
eso	-12435
esp	-12436
esu	-12437
esy	-12438
etb	-12439
etn	-12440
ets	-12441
etu	-12442
ety	-12443
eur	-12444
eve	-12445
ewr	-12446
ews	-12447
exc	-12448
exp	-12449
exu	-12450
fal	-12451
fam	-12452
far	-12453
fec	-12454
feg	-12455
fek	-12456
fel	-12457
fen	-12458
fes	-12459
ffa	-12460
ffe	-12461
ffl	-12462
fil	-12463
fir	-12464
fit	-12465
fle	-12466
flu	-12467
fol	-12468
fon	-12469
fou	-12470
fre	-12471
fro	-12472
fte	-12473
fts	-12474
fun	-12475
fus	-12476
gad	-12477
gag	-12478
gam	-12479
gar	-12480
gat	-12481
gay	-12482
gen	-12483
geo	-12484
gev	-12485
ggr	-12486
ghe	-12487
ght	-12488
gic	-12489
gin	-12490
gis	-12491
git	-12492
gle	-12493
glo	-12494
gor	-12495
gre	-12496
gri	-12497
gro	-12498
gst	-12499
gth	-12500
gue	-12501
gun	-12502
gur	-12503
hal	-12504
ham	-12505
han	-12506
hap	-12507
har	-12508
has	-12509
hat	-12510
hea	-12511
hec	-12512
hee	-12513
hef	-12514
hei	-12515
hel	-12516
hem	-12517
heo	-12518
hev	-12519
hey	-12520
hif	-12521
hig	-12522
hil	-12523
hin	-12524
hir	-12525
hit	-12526
hle	-12527
hly	-12528
hom	-12529
hon	-12530
hop	-12531
hor	-12532
hos	-12533
hot	-12534
hou	-12535
hqu	-12536
hre	-12537
hro	-12538
hts	-12539
hun	-12540
hur	-12541
hus	-12542
hys	-12543
iFA	-12544
iab	-12545
iad	-12546
ias	-12547
iat	-12548
ibe	-12549
ica	-12550
ici	-12551
icl	-12552
ict	-12553
icu	-12554
icy	-12555
ida	-12556
idd	-12557
idr	-12558
idt	-12559
idu	-12560
iel	-12561
ien	-12562
ifa	-12563
iff	-12564
ifi	-12565
ift	-12566
igi	-12567
ilH	-12568
ila	-12569
ilo	-12570
ils	-12571
ilt	-12572
ilu	-12573
ima	-12574
imb	-12575
ime	-12576
imi	-12577
imu	-12578
ina	-12579
ini	-12580
inj	-12581
inn	-12582
inq	-12583
inu	-12584
inv	-12585
iou	-12586
ipe	-12587
ipi	-12588
ipp	-12589
ira	-12590
ire	-12591
irl	-12592
irn	-12593
irp	-12594
irs	-12595
irw	-12596
isa	-12597
isb	-12598
isc	-12599
isg	-12600
isi	-12601
isp	-12602
isq	-12603
isr	-12604
iss	-12605
isu	-12606
ita	-12607
itc	-12608
itl	-12609
itm	-12610
itn	-12611
ito	-12612
itt	-12613
itu	-12614
ivi	-12615
izz	-12616
jes	-12617
jew	-12618
jou	-12619
jun	-12620
jus	-12621
kag	-12622
ked	-12623
kep	-12624
ker	-12625
kin	-12626
kir	-12627
kit	-12628
kle	-12629
kly	-12630
kon	-12631
kup	-12632
lab	-12633
lad	-12634
lag	-12635
lam	-12636
lan	-12637
lar	-12638
las	-12639
lay	-12640
lea	-12641
lef	-12642
lel	-12643
len	-12644
lep	-12645
ler	-12646
let	-12647
lew	-12648
ley	-12649
lib	-12650
lik	-12651
lin	-12652
lit	-12653
liz	-12654
lle	-12655
llf	-12656
lli	-12657
llo	-12658
lls	-12659
llu	-12660
lly	-12661
lob	-12662
log	-12663
lom	-12664
lon	-12665
loo	-12666
loq	-12667
lot	-12668
lou	-12669
loy	-12670
lph	-12671
lps	-12672
lre	-12673
lsi	-12674
lso	-12675
lte	-12676
lti	-12677
ltu	-12678
lub	-12679
lud	-12680
lue	-12681
lun	-12682
lus	-12683
mab	-12684
mak	-12685
mal	-12686
mar	-12687
mat	-12688
mbo	-12689
med	-12690
mee	-12691
mem	-12692
mer	-12693
mes	-12694
mic	-12695
mid	-12696
mig	-12697
mil	-12698
min	-12699
mir	-12700
mna	-12701
mok	-12702
mor	-12703
mos	-12704
mou	-12705
mow	-12706
mpo	-12707
mse	-12708
mst	-12709
mul	-12710
mun	-12711
nac	-12712
nag	-12713
nam	-12714
nan	-12715
nar	-12716
nat	-12717
nch	-12718
nci	-12719
ncl	-12720
nda	-12721
nde	-12722
ndi	-12723
ndl	-12724
ndn	-12725
ndo	-12726
ndr	-12727
nds	-12728
ndu	-12729
nee	-12730
nen	-12731
nes	-12732
net	-12733
nge	-12734
ngr	-12735
nif	-12736
nig	-12737
nin	-12738
nis	-12739
nit	-12740
niz	-12741
nli	-12742
nlo	-12743
nly	-12744
nol	-12745
nom	-12746
nor	-12747
nou	-12748
nre	-12749
nro	-12750
nse	-12751
nsi	-12752
nst	-12753
nsu	-12754
nti	-12755
ntr	-12756
nts	-12757
ntu	-12758
num	-12759
nus	-12760
nve	-12761
oac	-12762
oad	-12763
oal	-12764
oar	-12765
obi	-12766
obl	-12767
ock	-12768
oco	-12769
oct	-12770
odi	-12771
odl	-12772
ods	-12773
oer	-12774
oft	-12775
oge	-12776
ogy	-12777
oic	-12778
ois	-12779
oit	-12780
okk	-12781
olS	-12782
ola	-12783
ole	-12784
oll	-12785
ols	-12786
olv	-12787
oma	-12788
omf	-12789
omo	-12790
oms	-12791
onf	-12792
oni	-12793
onl	-12794
onm	-12795
onn	-12796
ono	-12797
onu	-12798
onv	-12799
ony	-12800
oog	-12801
ook	-12802
oon	-12803
oor	-12804
oot	-12805
oph	-12806
opp	-12807
ora	-12808
orc	-12809
orf	-12810
org	-12811
ori	-12812
orl	-12813
orm	-12814
orn	-12815
oro	-12816
orp	-12817
orr	-12818
oru	-12819
orw	-12820
osi	-12821
oss	-12822
oth	-12823
oti	-12824
otu	-12825
ouc	-12826
oug	-12827
oul	-12828
owe	-12829
owm	-12830
ows	-12831
pac	-12832
pad	-12833
pag	-12834
pal	-12835
pan	-12836
pap	-12837
pas	-12838
pat	-12839
pee	-12840
pef	-12841
pel	-12842
pes	-12843
pew	-12844
pha	-12845
phe	-12846
phy	-12847
pic	-12848
pil	-12849
pir	-12850
pol	-12851
pou	-12852
pow	-12853
ppa	-12854
ppe	-12855
ppl	-12856
ppo	-12857
ppr	-12858
pst	-12859
pti	-12860
pts	-12861
ptu	-12862
pub	-12863
pus	-12864
qua	-12865
ran	-12866
rar	-12867
ras	-12868
rat	-12869
rce	-12870
rch	-12871
reb	-12872
reh	-12873
rei	-12874
rej	-12875
reo	-12876
req	-12877
rer	-12878
rhe	-12879
ric	-12880
rig	-12881
rik	-12882
ril	-12883
rip	-12884
riv	-12885
riz	-12886
roa	-12887
rob	-12888
roc	-12889
rod	-12890
rof	-12891
rog	-12892
roh	-12893
roj	-12894
ron	-12895
roo	-12896
ros	-12897
rot	-12898
rou	-12899
rov	-12900
rox	-12901
rre	-12902
rro	-12903
rse	-12904
rst	-12905
rth	-12906
rti	-12907
rts	-12908
rtu	-12909
rul	-12910
rum	-12911
run	-12912
rve	-12913
sac	-12914
sam	-12915
san	-12916
sar	-12917
sch	-12918
scr	-12919
see	-12920
seq	-12921
ser	-12922
sew	-12923
sia	-12924
sic	-12925
sif	-12926
sin	-12927
siq	-12928
sit	-12929
siu	-12930
siv	-12931
siz	-12932
sle	-12933
sly	-12934
soc	-12935
son	-12936
sop	-12937
sor	-12938
sou	-12939
sre	-12940
sro	-12941
ssa	-12942
sse	-12943
ssi	-12944
sta	-12945
ste	-12946
sti	-12947
sto	-12948
sts	-12949
stu	-12950
stw	-12951
suc	-12952
sul	-12953
sum	-12954
sup	-12955
sur	-12956
tac	-12957
tag	-12958
tak	-12959
tam	-12960
tan	-12961
tar	-12962
tat	-12963
tay	-12964
tea	-12965
tem	-12966
tep	-12967
thl	-12968
thn	-12969
tho	-12970
thr	-12971
ths	-12972
thy	-12973
tia	-12974
tie	-12975
tif	-12976
tio	-12977
tip	-12978
tiq	-12979
tir	-12980
tiv	-12981
tob	-12982
toc	-12983
tom	-12984
ton	-12985
top	-12986
tox	-12987
tps	-12988
tre	-12989
tri	-12990
tro	-12991
tru	-12992
tsi	-12993
tsm	-12994
tst	-12995
tte	-12996
tti	-12997
ttp	-12998
ttr	-12999
tty	-13000
tut	-13001
twe	-13002
tyl	-13003
typ	-13004
uab	-13005
uad	-13006
uan	-13007
uar	-13008
uat	-13009
ubj	-13010
ubl	-13011
ubm	-13012
ubv	-13013
ucc	-13014
uce	-13015
uci	-13016
uct	-13017
udi	-13018
ued	-13019
uel	-13020
uen	-13021
ugs	-13022
uic	-13023
uin	-13024
uip	-13025
uis	-13026
uit	-13027
uiz	-13028
ula	-13029
uln	-13030
ulu	-13031
umn	-13032
ump	-13033
una	-13034
unb	-13035
une	-13036
unf	-13037
ung	-13038
unk	-13039
unl	-13040
unn	-13041
unp	-13042
unt	-13043
unu	-13044
unw	-13045
uor	-13046
uou	-13047
upp	-13048
ups	-13049
urd	-13050
urf	-13051
urg	-13052
uri	-13053
url	-13054
urs	-13055
urt	-13056
ury	-13057
usc	-13058
usi	-13059
usp	-13060
usu	-13061
utc	-13062
utg	-13063
uti	-13064
utl	-13065
utp	-13066
utu	-13067
vag	-13068
van	-13069
var	-13070
vas	-13071
vat	-13072
veh	-13073
vem	-13074
vey	-13075
vie	-13076
vig	-13077
vil	-13078
vin	-13079
vit	-13080
voc	-13081
vok	-13082
vor	-13083
vot	-13084
vou	-13085
vul	-13086
wab	-13087
wal	-13088
wan	-13089
war	-13090
wat	-13091
wed	-13092
wel	-13093
wen	-13094
whe	-13095
whi	-13096
wic	-13097
wid	-13098
win	-13099
wis	-13100
wly	-13101
wns	-13102
wre	-13103
wth	-13104
xam	-13105
xce	-13106
xch	-13107
xcl	-13108
xec	-13109
xed	-13110
xem	-13111
xer	-13112
xig	-13113
xil	-13114
xis	-13115
xit	-13116
xtr	-13117
xtu	-13118
xty	-13119
yab	-13120
yal	-13121
yan	-13122
ych	-13123
yed	-13124
yee	-13125
yer	-13126
yin	-13127
yle	-13128
yll	-13129
yon	-13130
yor	-13131
you	-13132
yph	-13133
yri	-13134
yro	-13135
yse	-13136
zal	-13137
zed	-13138
zen	-13139
zer	-13140
zin	-13141
▁AA	-13142
▁AB	-13143
▁AF	-13144
▁AR	-13145
▁AU	-13146
▁AV	-13147
▁Af	-13148
▁Ap	-13149
▁Au	-13150
▁Av	-13151
▁Aw	-13152
▁BO	-13153
▁BR	-13154
▁BU	-13155
▁Br	-13156
▁Bu	-13157
▁CC	-13158
▁CE	-13159
▁CI	-13160
▁CM	-13161
▁CP	-13162
▁CU	-13163
▁CW	-13164
▁Ca	-13165
▁Ce	-13166
▁Ci	-13167
▁Cr	-13168
▁Cu	-13169
▁DA	-13170
▁DB	-13171
▁DI	-13172
▁DP	-13173
▁Da	-13174
▁Dr	-13175
▁ED	-13176
▁EF	-13177
▁EM	-13178
▁EQ	-13179
▁ER	-13180
▁ET	-13181
▁Ea	-13182
▁Ed	-13183
▁Ef	-13184
▁El	-13185
▁Eq	-13186
▁Et	-13187
▁Ev	-13188
▁FA	-13189
▁FE	-13190
▁FH	-13191
▁FL	-13192
▁FO	-13193
▁FU	-13194
▁Fa	-13195
▁Fe	-13196
▁Fo	-13197
▁Fu	-13198
▁GA	-13199
▁GE	-13200
▁GI	-13201
▁GO	-13202
▁GS	-13203
▁GU	-13204
▁GW	-13205
▁Gi	-13206
▁Gu	-13207
▁HA	-13208
▁HI	-13209
▁Ha	-13210
▁Hi	-13211
▁Ho	-13212
▁Hu	-13213
▁IC	-13214
▁IR	-13215
▁Ic	-13216
▁Is	-13217
▁JU	-13218
▁Jo	-13219
▁LC	-13220
▁LE	-13221
▁LG	-13222
▁LP	-13223
▁LT	-13224
▁LU	-13225
▁Li	-13226
▁ME	-13227
▁MI	-13228
▁MO	-13229
▁MP	-13230
▁MS	-13231
▁MU	-13232
▁Ma	-13233
▁Mi	-13234
▁Mo	-13235
▁NA	-13236
▁NB	-13237
▁NI	-13238
▁NS	-13239
▁NU	-13240
▁Ne	-13241
▁Nu	-13242
▁OB	-13243
▁OJ	-13244
▁OS	-13245
▁OU	-13246
▁OW	-13247
▁Oc	-13248
▁Of	-13249
▁Om	-13250
▁Op	-13251
▁Ot	-13252
▁Ou	-13253
▁Ov	-13254
▁Ow	-13255
▁PA	-13256
▁PL	-13257
▁PO	-13258
▁PS	-13259
▁PU	-13260
▁Pa	-13261
▁Pe	-13262
▁Po	-13263
▁Ps	-13264
▁Pu	-13265
▁RC	-13266
▁RH	-13267
▁RS	-13268
▁RU	-13269
▁Ri	-13270
▁Ro	-13271
▁Ru	-13272
▁SC	-13273
▁SI	-13274
▁SL	-13275
▁SM	-13276
▁SP	-13277
▁SS	-13278
▁SY	-13279
▁Sa	-13280
▁Si	-13281
▁Sk	-13282
▁Sl	-13283
▁So	-13284
▁Sw	-13285
▁TA	-13286
▁TD	-13287
▁TI	-13288
▁TM	-13289
▁TV	-13290
▁Ta	-13291
▁Ti	-13292
▁Tu	-13293
▁Ty	-13294
▁UA	-13295
▁Up	-13296
▁Us	-13297
▁VA	-13298
▁VI	-13299
▁Vi	-13300
▁Vo	-13301
▁WE	-13302
▁WI	-13303
▁Wr	-13304
▁XX	-13305
▁YE	-13306
▁YY	-13307
▁__	-13308
▁af	-13309
▁ah	-13310
▁ai	-13311
▁ap	-13312
▁au	-13313
▁av	-13314
▁aw	-13315
▁ba	-13316
▁bi	-13317
▁bu	-13318
▁ci	-13319
▁cr	-13320
▁cu	-13321
▁da	-13322
▁dy	-13323
▁ea	-13324
▁ec	-13325
▁ef	-13326
▁el	-13327
▁eq	-13328
▁er	-13329
▁et	-13330
▁ey	-13331
▁fe	-13332
▁fo	-13333
▁fr	-13334
▁fu	-13335
▁ga	-13336
▁ge	-13337
▁gy	-13338
▁ha	-13339
▁hi	-13340
▁ho	-13341
▁hr	-13342
▁ht	-13343
▁hu	-13344
▁ig	-13345
▁jo	-13346
▁ke	-13347
▁kn	-13348
▁la	-13349
▁mi	-13350
▁na	-13351
▁nu	-13352
▁ol	-13353
▁op	-13354
▁ot	-13355
▁ou	-13356
▁ov	-13357
▁pc	-13358
▁pi	-13359
▁pu	-13360
▁ru	-13361
▁si	-13362
▁sw	-13363
▁ta	-13364
▁ti	-13365
▁tu	-13366
▁ut	-13367
▁va	-13368
▁vi	-13369
▁wi	-13370
▁wo	-13371
▁wr	-13372
▁ww	-13373
▁ye	-13374
ABAD	-13375
ACAD	-13376
ADIN	-13377
AJES	-13378
ALAN	-13379
ALEN	-13380
ALIS	-13381
ALIT	-13382
ALIZ	-13383
ANCI	-13384
ANEO	-13385
ANIO	-13386
ANIT	-13387
ANIZ	-13388
APON	-13389
AQTE	-13390
ARAD	-13391
ARAN	-13392
ARCH	-13393
ARCI	-13394
ARIN	-13395
ARIO	-13396
ARTI	-13397
ASSI	-13398
ASTI	-13399
ATIN	-13400
AVES	-13401
AYER	-13402
Acti	-13403
Asid	-13404
Auth	-13405
BRAR	-13406
BRIE	-13407
BSEN	-13408
BSOL	-13409
Book	-13410
Brid	-13411
Bull	-13412
CELL	-13413
CHOL	-13414
CING	-13415
CONF	-13416
COUN	-13417
COUR	-13418
Cand	-13419
Care	-13420
Cash	-13421
Cate	-13422
Cent	-13423
Cour	-13424
Curr	-13425
Cust	-13426
DENT	-13427
DING	-13428
DRAW	-13429
DROP	-13430
Dang	-13431
Dipl	-13432
EACH	-13433
ECOG	-13434
ECON	-13435
ECOR	-13436
ECTI	-13437
ECTS	-13438
ECUR	-13439
EDAL	-13440
EDIN	-13441
ELAT	-13442
ELIT	-13443
ELLO	-13444
ELOP	-13445
EMIC	-13446
EMIN	-13447
ENAL	-13448
ENAN	-13449
ENES	-13450
ENID	-13451
ENIN	-13452
ENIT	-13453
ENTA	-13454
ENTE	-13455
ENTI	-13456
ERAL	-13457
ERED	-13458
ERIC	-13459
ERIN	-13460
ERTO	-13461
ERTY	-13462
ERVI	-13463
ESTR	-13464
EVER	-13465
EVIN	-13466
Educ	-13467
FAIR	-13468
FARE	-13469
FERE	-13470
FFIC	-13471
FICA	-13472
FITS	-13473
FTEE	-13474
Face	-13475
GAIN	-13476
GARD	-13477
GHER	-13478
GING	-13479
GIST	-13480
GITA	-13481
GNAN	-13482
GRAM	-13483
GUAR	-13484
GUND	-13485
Goog	-13486
Grie	-13487
HALL	-13488
HANG	-13489
HEDU	-13490
HERY	-13491
HIGH	-13492
HILO	-13493
HING	-13494
HITE	-13495
HNIC	-13496
HNOL	-13497
Hall	-13498
IANS	-13499
ICER	-13500
ICES	-13501
ICIP	-13502
ICIT	-13503
ICUL	-13504
IDAN	-13505
IDEL	-13506
IENS	-13507
ILOS	-13508
IMIN	-13509
IMUM	-13510
INAB	-13511
INAT	-13512
INCI	-13513
INCO	-13514
INES	-13515
INID	-13516
ININ	-13517
INIS	-13518
INST	-13519
IONS	-13520
IPIN	-13521
IPTI	-13522
IREC	-13523
IRIN	-13524
ISES	-13525
ISIT	-13526
ISON	-13527
ISSU	-13528
ISTI	-13529
ISTR	-13530
ITED	-13531
ITER	-13532
ITHD	-13533
ITTE	-13534
IVAC	-13535
Imbo	-13536
Inci	-13537
JECT	-13538
Jour	-13539
KILL	-13540
KING	-13541
Keep	-13542
Know	-13543
LASS	-13544
LAYA	-13545
LEGE	-13546
LINE	-13547
LING	-13548
LITY	-13549
LOMA	-13550
Late	-13551
Lear	-13552
Libr	-13553
MBOY	-13554
MIDA	-13555
MISC	-13556
MMIT	-13557
MMON	-13558
MMOR	-13559
MPEN	-13560
MPLE	-13561
MPLO	-13562
Memb	-13563
NAND	-13564
NDAL	-13565
NDAR	-13566
NDIN	-13567
OGIS	-13568
OLAR	-13569
OLES	-13570
OLLO	-13571
OLOG	-13572
OMIN	-13573
ONAL	-13574
ONES	-13575
ONIN	-13576
ONOR	-13577
ONTI	-13578
ONTR	-13579
OPER	-13580
OPHY	-13581
OPOS	-13582
ORAT	-13583
ORIT	-13584
ORIZ	-13585
ORTI	-13586
ORTS	-13587
OTHE	-13588
OURS	-13589
PANC	-13590
PECI	-13591
PECT	-13592
PERC	-13593
PERM	-13594
PERS	-13595
PING	-13596
PLIC	-13597
PPOR	-13598
PREG	-13599
PREL	-13600
PREM	-13601
Pobl	-13602
Pres	-13603
Prov	-13604
QUEN	-13605
RAIN	-13606
RAMS	-13607
RANC	-13608
RATI	-13609
REAT	-13610
RENT	-13611
REQU	-13612
RGAN	-13613
RICT	-13614
ROSS	-13615
SAFE	-13616
SEMB	-13617
SERV	-13618
SFER	-13619
SHIP	-13620
SIBI	-13621
SING	-13622
SITY	-13623
SSIS	-13624
STAL	-13625
STEM	-13626
STIC	-13627
STIT	-13628
STOD	-13629
STRO	-13630
STUD	-13631
Safe	-13632
Sang	-13633
Scho	-13634
SciM	-13635
Serv	-13636
Sing	-13637
Spec	-13638
Spor	-13639
TABI	-13640
TEES	-13641
TERN	-13642
THEI	-13643
THER	-13644
THIC	-13645
THIR	-13646
THOD	-13647
THOR	-13648
TIAL	-13649
TICO	-13650
TORI	-13651
TRAN	-13652
TRHE	-13653
TROL	-13654
TRON	-13655
TTER	-13656
TURB	-13657
Thes	-13658
UALI	-13659
UDGE	-13660
UDIT	-13661
UENT	-13662
UING	-13663
ULAL	-13664
ULAR	-13665
ULTI	-13666
ULTY	-13667
ULUM	-13668
UMER	-13669
UNDS	-13670
UNIF	-13671
UNIS	-13672
UNTA	-13673
UNTI	-13674
UPRE	-13675
URAL	-13676
URAN	-13677
URCE	-13678
URES	-13679
URIT	-13680
URTH	-13681
UTEL	-13682
UTST	-13683
Unli	-13684
VELY	-13685
VENT	-13686
VERN	-13687
VERV	-13688
VITY	-13689
Viol	-13690
WING	-13691
Wall	-13692
Will	-13693
Work	-13694
Writ	-13695
Your	-13696
ZING	-13697
Zoom	-13698
abil	-13699
abin	-13700
abou	-13701
abul	-13702
abus	-13703
acad	-13704
acat	-13705
acce	-13706
aceb	-13707
acef	-13708
aces	-13709
acil	-13710
ackg	-13711
acqu	-13712
acti	-13713
acts	-13714
actu	-13715
acur	-13716
adab	-13717
adel	-13718
adem	-13719
ader	-13720
ades	-13721
adge	-13722
adil	-13723
adou	-13724
afid	-13725
agen	-13726
aghe	-13727
ailu	-13728
aims	-13729
aina	-13730
aine	-13731
ains	-13732
aint	-13733
airc	-13734
airm	-13735
airn	-13736
airp	-13737
airw	-13738
aise	-13739
aith	-13740
aken	-13741
aker	-13742
alan	-13743
alar	-13744
aled	-13745
alen	-13746
alia	-13747
alid	-13748
alif	-13749
alig	-13750
alin	-13751
alis	-13752
alit	-13753
aliz	-13754
alli	-13755
allo	-13756
allp	-13757
alou	-13758
amag	-13759
amew	-13760
amic	-13761
amil	-13762
amin	-13763
amit	-13764
amou	-13765
ampa	-13766
amur	-13767
anag	-13768
anal	-13769
anan	-13770
anci	-13771
anda	-13772
andl	-13773
ands	-13774
anin	-13775
anis	-13776
aniz	-13777
anor	-13778
anot	-13779
ansc	-13780
ansf	-13781
ansp	-13782
answ	-13783
ante	-13784
anti	-13785
anus	-13786
anyw	-13787
apel	-13788
aper	-13789
aphy	-13790
apon	-13791
appr	-13792
apst	-13793
arab	-13794
aran	-13795
arap	-13796
aras	-13797
arat	-13798
arch	-13799
arci	-13800
ardi	-13801
ardl	-13802
aren	-13803
ares	-13804
arhe	-13805
aril	-13806
arin	-13807
aris	-13808
arit	-13809
ariz	-13810
arly	-13811
aron	-13812
arre	-13813
arri	-13814
arth	-13815
arti	-13816
artn	-13817
arts	-13818
arty	-13819
ashb	-13820
ashi	-13821
asib	-13822
asic	-13823
asis	-13824
ason	-13825
assa	-13826
aste	-13827
asti	-13828
atal	-13829
atel	-13830
aten	-13831
atev	-13832
athe	-13833
atin	-13834
atti	-13835
atto	-13836
aund	-13837
aure	-13838
ause	-13839
auth	-13840
aver	-13841
avor	-13842
awal	-13843
ayab	-13844
ayed	-13845
ayer	-13846
ayor	-13847
ayro	-13848
aysl	-13849
banc	-13850
band	-13851
bbre	-13852
bers	-13853
bery	-13854
betw	-13855
bing	-13856
bjec	-13857
blig	-13858
bols	-13859
bout	-13860
brow	-13861
bstr	-13862
buil	-13863
cale	-13864
camp	-13865
cand	-13866
cast	-13867
cave	-13868
ceip	-13869
cere	-13870
cern	-13871
chab	-13872
char	-13873
chin	-13874
chni	-13875
choo	-13876
cial	-13877
cies	-13878
cili	-13879
cing	-13880
cise	-13881
citi	-13882
cked	-13883
clas	-13884
clic	-13885
clop	-13886
clos	-13887
conc	-13888
conn	-13889
conv	-13890
cord	-13891
core	-13892
crap	-13893
cted	-13894
ctor	-13895
curr	-13896
curs	-13897
cuts	-13898
danc	-13899
dary	-13900
dead	-13901
deal	-13902
deme	-13903
derl	-13904
dies	-13905
dign	-13906
dith	-13907
dmir	-13908
dmis	-13909
dmit	-13910
docu	-13911
dors	-13912
down	-13913
dres	-13914
duci	-13915
dust	-13916
dver	-13917
dvis	-13918
eace	-13919
eads	-13920
eall	-13921
eans	-13922
earb	-13923
earc	-13924
eare	-13925
earn	-13926
ears	-13927
ease	-13928
eave	-13929
ebas	-13930
ecad	-13931
ecam	-13932
ecem	-13933
ecen	-13934
eces	-13935
echn	-13936
ecid	-13937
ecis	-13938
ecog	-13939
ecom	-13940
ecor	-13941
ecre	-13942
ecti	-13943
ectr	-13944
ects	-13945
ectu	-13946
ecur	-13947
ecut	-13948
eded	-13949
eder	-13950
edge	-13951
edin	-13952
edom	-13953
eedb	-13954
eeks	-13955
eers	-13956
eets	-13957
efac	-13958
efam	-13959
efen	-13960
efic	-13961
efit	-13962
ehol	-13963
eigh	-13964
eing	-13965
elay	-13966
elib	-13967
elin	-13968
elis	-13969
elle	-13970
elow	-13971
emal	-13972
embl	-13973
embo	-13974
embr	-13975
emem	-13976
emer	-13977
emes	-13978
emin	-13979
emoc	-13980
emon	-13981
emot	-13982
enac	-13983
enal	-13984
enam	-13985
enan	-13986
enat	-13987
ende	-13988
endi	-13989
enes	-13990
enew	-13991
enin	-13992
enis	-13993
enly	-13994
enol	-13995
enou	-13996
enro	-13997
ensi	-13998
ensu	-13999
enta	-14000
ente	-14001
enth	-14002
entl	-14003
entr	-14004
entu	-14005
enve	-14006
eone	-14007
eous	-14008
epEd	-14009
epar	-14010
eper	-14011
epor	-14012
epos	-14013
epre	-14014
epri	-14015
epro	-14016
epub	-14017
equi	-14018
erab	-14019
erac	-14020
eral	-14021
eran	-14022
eras	-14023
erat	-14024
ercr	-14025
eree	-14026
eren	-14027
ergr	-14028
erhe	-14029
eric	-14030
erif	-14031
erin	-14032
erlo	-14033
erly	-14034
erms	-14035
erou	-14036
erre	-14037
erse	-14038
ersi	-14039
ersp	-14040
erst	-14041
erty	-14042
escr	-14043
eser	-14044
esig	-14045
esol	-14046
esom	-14047
esos	-14048
esou	-14049
essa	-14050
essf	-14051
essi	-14052
essm	-14053
este	-14054
esti	-14055
estu	-14056
esty	-14057
esul	-14058
etar	-14059
eten	-14060
eter	-14061
etic	-14062
etty	-14063
etur	-14064
eval	-14065
eved	-14066
evel	-14067
even	-14068
eves	-14069
evol	-14070
ewab	-14071
ewed	-14072
ewel	-14073
ewis	-14074
ewly	-14075
ewor	-14076
exam	-14077
exce	-14078
excl	-14079
expe	-14080
fare	-14081
feit	-14082
felt	-14083
fend	-14084
fere	-14085
ferr	-14086
fers	-14087
fety	-14088
ffen	-14089
ffir	-14090
fflu	-14091
fice	-14092
fies	-14093
fits	-14094
flec	-14095
flic	-14096
forc	-14097
ford	-14098
forg	-14099
foru	-14100
fted	-14101
func	-14102
fuse	-14103
gage	-14104
gain	-14105
gard	-14106
gate	-14107
gend	-14108
gent	-14109
gged	-14110
gine	-14111
gisl	-14112
gled	-14113
glis	-14114
gned	-14115
gory	-14116
gral	-14117
grap	-14118
grat	-14119
gres	-14120
gric	-14121
gthe	-14122
guni	-14123
gust	-14124
hair	-14125
hall	-14126
hang	-14127
hate	-14128
havi	-14129
heal	-14130
hear	-14131
heat	-14132
hedu	-14133
heet	-14134
heir	-14135
hene	-14136
heor	-14137
herh	-14138
hern	-14139
herw	-14140
hese	-14141
hich	-14142
hief	-14143
hild	-14144
hing	-14145
hion	-14146
hird	-14147
hirt	-14148
hite	-14149
hold	-14150
hore	-14151
hort	-14152
hose	-14153
hous	-14154
hree	-14155
hrow	-14156
hted	-14157
hten	-14158
hter	-14159
iage	-14160
iali	-14161
iall	-14162
iang	-14163
iant	-14164
iary	-14165
iate	-14166
ibed	-14167
ibil	-14168
ibit	-14169
ibut	-14170
icab	-14171
icat	-14172
icer	-14173
icin	-14174
icip	-14175
icly	-14176
icti	-14177
icts	-14178
ictu	-14179
idac	-14180
idan	-14181
idat	-14182
idav	-14183
iday	-14184
ided	-14185
iden	-14186
idge	-14187
idit	-14188
idor	-14189
idri	-14190
ield	-14191
ienc	-14192
iens	-14193
iers	-14194
ieve	-14195
ifor	-14196
ifte	-14197
iged	-14198
igen	-14199
ighe	-14200
ighl	-14201
igib	-14202
igin	-14203
igit	-14204
igni	-14205
igns	-14206
ikew	-14207
ilab	-14208
ilad	-14209
ildr	-14210
ilen	-14211
iles	-14212
ille	-14213
illf	-14214
ills	-14215
ilor	-14216
ilty	-14217
imag	-14218
imar	-14219
imed	-14220
imel	-14221
imes	-14222
imic	-14223
imil	-14224
imit	-14225
imiz	-14226
imse	-14227
imul	-14228
inan	-14229
inar	-14230
inat	-14231
incl	-14232
inds	-14233
inen	-14234
iner	-14235
ingf	-14236
ingl	-14237
ingn	-14238
ingu	-14239
inid	-14240
inim	-14241
inin	-14242
inis	-14243
init	-14244
inks	-14245
inol	-14246
inor	-14247
insi	-14248
inst	-14249
inti	-14250
ints	-14251
inue	-14252
inut	-14253
iods	-14254
ions	-14255
iors	-14256
ipan	-14257
ipat	-14258
ipin	-14259
ipti	-14260
irab	-14261
irac	-14262
irly	-14263
iron	-14264
irre	-14265
irtu	-14266
isab	-14267
isbe	-14268
isce	-14269
isch	-14270
iscr	-14271
iser	-14272
isgr	-14273
ishe	-14274
isin	-14275
isit	-14276
ison	-14277
isor	-14278
ispl	-14279
ispo	-14280
isqu	-14281
isre	-14282
issi	-14283
ista	-14284
iste	-14285
isti	-14286
istl	-14287
ists	-14288
istu	-14289
itab	-14290
itat	-14291
item	-14292
ithd	-14293
ithe	-14294
ithf	-14295
ithh	-14296
itia	-14297
itic	-14298
itim	-14299
itou	-14300
itse	-14301
itud	-14302
ived	-14303
iven	-14304
ives	-14305
ivis	-14306
ixty	-14307
jail	-14308
jour	-14309
junc	-14310
jury	-14311
just	-14312
kage	-14313
keep	-14314
kers	-14315
kets	-14316
kfor	-14317
kirt	-14318
kits	-14319
klis	-14320
lace	-14321
lack	-14322
lang	-14323
lans	-14324
lary	-14325
lash	-14326
lass	-14327
late	-14328
lays	-14329
lder	-14330
lead	-14331
lean	-14332
leat	-14333
ledg	-14334
lely	-14335
lems	-14336
lent	-14337
leti	-14338
leve	-14339
liab	-14340
libr	-14341
lict	-14342
lier	-14343
lign	-14344
lims	-14345
lipp	-14346
lity	-14347
llan	-14348
lleg	-14349
llen	-14350
llic	-14351
lloc	-14352
llow	-14353
logs	-14354
loit	-14355
lond	-14356
lone	-14357
lood	-14358
look	-14359
loor	-14360
lope	-14361
lops	-14362
loqu	-14363
lore	-14364
lose	-14365
lost	-14366
loth	-14367
love	-14368
lows	-14369
lter	-14370
lves	-14371
mail	-14372
main	-14373
mall	-14374
mann	-14375
mart	-14376
mary	-14377
mean	-14378
medi	-14379
memb	-14380
mend	-14381
mers	-14382
mest	-14383
mful	-14384
mine	-14385
misd	-14386
miss	-14387
mity	-14388
mong	-14389
moni	-14390
mony	-14391
most	-14392
moun	-14393
mple	-14394
mplo	-14395
mpro	-14396
msel	-14397
nSci	-14398
nack	-14399
nanc	-14400
nant	-14401
nate	-14402
ncho	-14403
nchr	-14404
ndab	-14405
ndal	-14406
ndar	-14407
ndat	-14408
nday	-14409
nded	-14410
ndem	-14411
ndes	-14412
ndic	-14413
ndid	-14414
ndin	-14415
ndle	-14416
ndom	-14417
ndon	-14418
ndor	-14419
ndre	-14420
ndue	-14421
ndul	-14422
ndum	-14423
nees	-14424
nent	-14425
netw	-14426
nfor	-14427
nigh	-14428
nish	-14429
nits	-14430
nogr	-14431
noun	-14432
nowl	-14433
nown	-14434
nrol	-14435
nted	-14436
nter	-14437
ntic	-14438
ntur	-14439
numb	-14440
oach	-14441
oard	-14442
oast	-14443
obsc	-14444
ocac	-14445
ocat	-14446
ocie	-14447
ocop	-14448
odel	-14449
oder	-14450
odic	-14451
odif	-14452
odol	-14453
ogat	-14454
ogis	-14455
ohol	-14456
oing	-14457
oise	-14458
okle	-14459
olar	-14460
olas	-14461
olat	-14462
olds	-14463
olen	-14464
oler	-14465
olig	-14466
olio	-14467
oliz	-14468
ollo	-14469
olor	-14470
olut	-14471
omas	-14472
omat	-14473
omed	-14474
omin	-14475
omit	-14476
ommo	-14477
ompe	-14478
ompl	-14479
ompo	-14480
ompu	-14481
onab	-14482
onal	-14483
onat	-14484
once	-14485
ondi	-14486
onen	-14487
oner	-14488
onif	-14489
onit	-14490
oniz	-14491
onom	-14492
onou	-14493
onse	-14494
onsi	-14495
onst	-14496
onth	-14497
ontr	-14498
onve	-14499
oodl	-14500
oods	-14501
oons	-14502
oors	-14503
oose	-14504
opts	-14505
opul	-14506
opyr	-14507
orab	-14508
oran	-14509
orar	-14510
orat	-14511
orce	-14512
orem	-14513
oren	-14514
oreo	-14515
ores	-14516
orge	-14517
oric	-14518
oril	-14519
orin	-14520
oris	-14521
orit	-14522
oriz	-14523
orkp	-14524
orks	-14525
orld	-14526
orno	-14527
orou	-14528
orps	-14529
orre	-14530
orro	-14531
ortf	-14532
orth	-14533
orti	-14534
ortl	-14535
ortu	-14536
osal	-14537
osar	-14538
oses	-14539
ossi	-14540
otal	-14541
otar	-14542
oted	-14543
oten	-14544
oter	-14545
otic	-14546
oubt	-14547
oura	-14548
ourc	-14549
ourt	-14550
oval	-14551
oved	-14552
owan	-14553
owar	-14554
owed	-14555
pair	-14556
panc	-14557
pear	-14558
peci	-14559
pell	-14560
pera	-14561
perc	-14562
perm	-14563
pert	-14564
phab	-14565
pher	-14566
phic	-14567
phol	-14568
phon	-14569
pics	-14570
pies	-14571
pine	-14572
ping	-14573
plac	-14574
plic	-14575
plor	-14576
poli	-14577
pond	-14578
pped	-14579
pple	-14580
ppli	-14581
pply	-14582
pren	-14583
prev	-14584
prim	-14585
prof	-14586
proh	-14587
proo	-14588
prot	-14589
prov	-14590
prox	-14591
pted	-14592
pter	-14593
quad	-14594
quak	-14595
quan	-14596
quat	-14597
quen	-14598
ques	-14599
quet	-14600
quic	-14601
quid	-14602
quie	-14603
quir	-14604
quiv	-14605
quiz	-14606
quor	-14607
rade	-14608
radu	-14609
rall	-14610
ranc	-14611
rand	-14612
rang	-14613
rans	-14614
rant	-14615
rary	-14616
rass	-14617
rate	-14618
rave	-14619
rawn	-14620
raws	-14621
rder	-14622
reac	-14623
read	-14624
reak	-14625
ream	-14626
rear	-14627
redi	-14628
reem	-14629
reen	-14630
reer	-14631
rehe	-14632
reig	-14633
rein	-14634
reis	-14635
renc	-14636
rent	-14637
reof	-14638
reon	-14639
repl	-14640
rere	-14641
resb	-14642
resc	-14643
rese	-14644
resh	-14645
resi	-14646
resp	-14647
reti	-14648
revi	-14649
rgan	-14650
rial	-14651
rien	-14652
righ	-14653
rill	-14654
rime	-14655
rinc	-14656
rink	-14657
rior	-14658
rite	-14659
rity	-14660
rivi	-14661
roac	-14662
road	-14663
roce	-14664
rogr	-14665
role	-14666
romo	-14667
rons	-14668
roug	-14669
rout	-14670
rove	-14671
rtic	-14672
rual	-14673
rugs	-14674
ruit	-14675
safe	-14676
sage	-14677
sand	-14678
scho	-14679
sele	-14680
sell	-14681
semb	-14682
senc	-14683
sent	-14684
sers	-14685
serv	-14686
sfor	-14687
shar	-14688
shop	-14689
sias	-14690
sidy	-14691
sify	-14692
siqu	-14693
site	-14694
siti	-14695
sits	-14696
sity	-14697
sium	-14698
sman	-14699
sors	-14700
sory	-14701
sour	-14702
spac	-14703
spec	-14704
spon	-14705
sses	-14706
ssis	-14707
ssoc	-14708
ssue	-14709
ssum	-14710
ssur	-14711
stal	-14712
stan	-14713
stat	-14714
sted	-14715
stem	-14716
ster	-14717
stes	-14718
stic	-14719
stig	-14720
ston	-14721
stor	-14722
stud	-14723
sual	-14724
suan	-14725
sued	-14726
sues	-14727
suit	-14728
sult	-14729
syst	-14730
tach	-14731
tack	-14732
tact	-14733
taff	-14734
tail	-14735
tair	-14736
tand	-14737
tant	-14738
tart	-14739
tary	-14740
tate	-14741
teac	-14742
tead	-14743
teal	-14744
tech	-14745
tect	-14746
teem	-14747
teer	-14748
tees	-14749
tere	-14750
teri	-14751
terl	-14752
terp	-14753
terr	-14754
terv	-14755
thic	-14756
thin	-14757
thir	-14758
thor	-14759
thre	-14760
thro	-14761
tiar	-14762
tiat	-14763
ticl	-14764
tify	-14765
tile	-14766
till	-14767
tiou	-14768
titi	-14769
tivi	-14770
tled	-14771
toge	-14772
torn	-14773
tran	-14774
trar	-14775
trat	-14776
trib	-14777
trin	-14778
trol	-14779
tron	-14780
truc	-14781
trug	-14782
tsid	-14783
tten	-14784
tute	-14785
tyle	-14786
uage	-14787
uali	-14788
uall	-14789
uana	-14790
uanc	-14791
uary	-14792
ubse	-14793
ubsi	-14794
ucat	-14795
uces	-14796
ucou	-14797
ucti	-14798
ucts	-14799
uctu	-14800
uded	-14801
udes	-14802
udic	-14803
udio	-14804
uent	-14805
uest	-14806
ugur	-14807
uide	-14808
uilt	-14809
uine	-14810
uing	-14811
uish	-14812
ulat	-14813
ulsi	-14814
ultu	-14815
ulty	-14816
ulum	-14817
umbe	-14818
umed	-14819
umma	-14820
umph	-14821
undr	-14822
unds	-14823
uner	-14824
unis	-14825
unte	-14826
unti	-14827
unus	-14828
uous	-14829
uper	-14830
upre	-14831
urac	-14832
uran	-14833
urat	-14834
urch	-14835
urea	-14836
urin	-14837
uris	-14838
urit	-14839
urre	-14840
urro	-14841
ursu	-14842
urtu	-14843
usal	-14844
uses	-14845
usin	-14846
usta	-14847
uste	-14848
usto	-14849
ustr	-14850
usts	-14851
ustw	-14852
utab	-14853
utgo	-14854
uthe	-14855
util	-14856
utin	-14857
uton	-14858
utor	-14859
utre	-14860
utsi	-14861
utst	-14862
vacy	-14863
vain	-14864
valu	-14865
vanc	-14866
vand	-14867
veal	-14868
velo	-14869
vels	-14870
vely	-14871
vemb	-14872
vene	-14873
veni	-14874
venu	-14875
vera	-14876
verb	-14877
vere	-14878
veri	-14879
vern	-14880
vert	-14881
verv	-14882
vile	-14883
vior	-14884
viou	-14885
visi	-14886
vite	-14887
viti	-14888
volv	-14889
vors	-14890
ware	-14891
ween	-14892
went	-14893
wers	-14894
wice	-14895
wing	-14896
wned	-14897
wner	-14898
word	-14899
writ	-14900
xamp	-14901
xclu	-14902
xili	-14903
xpec	-14904
xper	-14905
xten	-14906
xter	-14907
xtor	-14908
xual	-14909
yber	-14910
yees	-14911
yers	-14912
ying	-14913
ymna	-14914
ynch	-14915
ypes	-14916
ypew	-14917
ypho	-14918
ysel	-14919
ysis	-14920
yter	-14921
zens	-14922
zero	-14923
zing	-14924
▁AAC	-14925
▁ACU	-14926
▁ADM	-14927
▁ALU	-14928
▁ANT	-14929
▁ASS	-14930
▁ATT	-14931
▁Ach	-14932
▁Ack	-14933
▁Add	-14934
▁Adm	-14935
▁Adv	-14936
▁Aff	-14937
▁Ali	-14938
▁Ann	-14939
▁Apr	-14940
▁Are	-14941
▁Asi	-14942
▁Ath	-14943
▁Aut	-14944
▁Ave	-14945
▁Awa	-14946
▁BAS	-14947
▁BEH	-14948
▁BEN	-14949
▁BOO	-14950
▁BRE	-14951
▁BSC	-14952
▁BSO	-14953
▁BUS	-14954
▁Bac	-14955
▁Ban	-14956
▁Bar	-14957
▁Bat	-14958
▁Bay	-14959
▁Ben	-14960
▁Bes	-14961
▁Bet	-14962
▁Bir	-14963
▁Boh	-14964
▁Bon	-14965
▁Boo	-14966
▁Bor	-14967
▁Bow	-14968
▁Bro	-14969
▁Bud	-14970
▁Bul	-14971
▁Bus	-14972
▁CAJ	-14973
▁CAM	-14974
▁CAR	-14975
▁CAS	-14976
▁CAT	-14977
▁CCT	-14978
▁CEL	-14979
▁CEN	-14980
▁CER	-14981
▁CHE	-14982
▁CLE	-14983
▁COD	-14984
▁COL	-14985
▁COM	-14986
▁COP	-14987
▁CUR	-14988
▁Caj	-14989
▁Cal	-14990
▁Cam	-14991
▁Can	-14992
▁Car	-14993
▁Cas	-14994
▁Ceb	-14995
▁Cer	-14996
▁Che	-14997
▁Chi	-14998
▁Cir	-14999
▁Cit	-15000
▁Civ	-15001
▁Cla	-15002
▁Cle	-15003
▁Clo	-15004
▁Cod	-15005
▁Com	-15006
▁Coo	-15007
▁Cop	-15008
▁Cou	-15009
▁Cre	-15010
▁Cro	-15011
▁Cul	-15012
▁Cur	-15013
▁DAT	-15014
▁DEP	-15015
▁DEV	-15016
▁DIP	-15017
▁DOC	-15018
▁DRU	-15019
▁Dat	-15020
▁Dav	-15021
▁Ded	-15022
▁Deg	-15023
▁Dem	-15024
▁Dic	-15025
▁Dig	-15026
▁Dip	-15027
▁Doc	-15028
▁Dor	-15029
▁Dow	-15030
▁Dre	-15031
▁Dro	-15032
▁Dur	-15033
▁EQU	-15034
▁EXA	-15035
▁EXC	-15036
▁EXP	-15037
▁Eat	-15038
▁Eit	-15039
▁Ele	-15040
▁Equ	-15041
▁Est	-15042
▁Exp	-15043
▁FAC	-15044
▁FER	-15045
▁FID	-15046
▁FIL	-15047
▁FIN	-15048
▁FIR	-15049
▁FLO	-15050
▁FRO	-15051
▁FUN	-15052
▁Fal	-15053
▁Fem	-15054
▁Fig	-15055
▁Fir	-15056
▁Foc	-15057
▁Fon	-15058
▁Fou	-15059
▁Fre	-15060
▁Fun	-15061
▁GAM	-15062
▁GEN	-15063
▁GIV	-15064
▁GON	-15065
▁Gam	-15066
▁Gen	-15067
▁Gon	-15068
▁Gri	-15069
▁Gro	-15070
▁HAZ	-15071
▁HRM	-15072
▁Hac	-15073
▁Har	-15074
▁Haz	-15075
▁Hen	-15076
▁Hig	-15077
▁Hol	-15078
▁Hos	-15079
▁Hou	-15080
▁How	-15081
▁Hum	-15082
▁INF	-15083
▁INT	-15084
▁ISS	-15085
▁Imm	-15086
▁Imp	-15087
▁Ini	-15088
▁Int	-15089
▁Inv	-15090
▁JUD	-15091
▁JUN	-15092
▁Jan	-15093
▁Jul	-15094
▁Jus	-15095
▁LAB	-15096
▁LUC	-15097
▁Lan	-15098
▁Lea	-15099
▁Len	-15100
▁Lib	-15101
▁Lic	-15102
▁Lis	-15103
▁Lit	-15104
▁Lon	-15105
▁Lou	-15106
▁MAC	-15107
▁MAX	-15108
▁MIS	-15109
▁MSW	-15110
▁MUN	-15111
▁Mag	-15112
▁Mak	-15113
▁Mal	-15114
▁Mat	-15115
▁Med	-15116
▁Mem	-15117
▁Met	-15118
▁Mix	-15119
▁Mod	-15120
▁Mot	-15121
▁Mul	-15122
▁Mun	-15123
▁NAM	-15124
▁NAT	-15125
▁NAV	-15126
▁NGO	-15127
▁NID	-15128
▁NOR	-15129
▁NST	-15130
▁NUG	-15131
▁Nam	-15132
▁Num	-15133
▁Nur	-15134
▁OFF	-15135
▁ONL	-15136
▁OWN	-15137
▁Onb	-15138
▁Onl	-15139
▁Ord	-15140
▁PHI	-15141
▁PHY	-15142
▁PRE	-15143
▁PRI	-15144
▁Pan	-15145
▁Pas	-15146
▁Phi	-15147
▁Phy	-15148
▁Pic	-15149
▁Pom	-15150
▁Por	-15151
▁RAN	-15152
▁REF	-15153
▁REP	-15154
▁REQ	-15155
▁RET	-15156
▁ROB	-15157
▁ROS	-15158
▁ROT	-15159
▁RUL	-15160
▁Ran	-15161
▁Rat	-15162
▁Ref	-15163
▁Reg	-15164
▁Ren	-15165
▁Rey	-15166
▁Ric	-15167
▁Rig	-15168
▁Ris	-15169
▁Rob	-15170
▁Rom	-15171
▁Rul	-15172
▁Rur	-15173
▁Rus	-15174
▁SAN	-15175
▁SAW	-15176
▁SEP	-15177
▁SER	-15178
▁SEX	-15179
▁SHE	-15180
▁SIN	-15181
▁SLO	-15182
▁SMO	-15183
▁SOL	-15184
▁SSE	-15185
▁STA	-15186
▁STR	-15187
▁SUB	-15188
▁SUC	-15189
▁Sal	-15190
▁San	-15191
▁Sat	-15192
▁Sch	-15193
▁See	-15194
▁Seg	-15195
[...]
